<pad>	0
<unk>	0
<s>	0
</s>	0
.	-3.04106
▁the	-3.21621
▁i	-3.21835
,	-3.36496
'	-3.48203
▁you	-3.68517
▁to	-3.696
▁it	-3.73848
▁a	-3.81282
?	-3.87817
s	-3.93396
▁is	-4.4382
▁and	-4.49875
t	-4.57056
▁so	-4.72895
▁for	-4.73317
▁that	-4.73866
▁can	-4.74123
▁of	-4.74196
▁in	-4.77828
▁we	-4.81828
▁have	-4.8409
▁but	-4.87104
▁there	-5.08231
▁on	-5.10925
▁be	-5.11287
▁are	-5.13229
▁this	-5.13594
▁do	-5.19592
▁if	-5.204
▁will	-5.24333
m	-5.35591
▁my	-5.38778
▁me	-5.43194
▁with	-5.44747
ll	-5.50434
▁think	-5.57011
▁at	-5.57169
▁your	-5.58843
▁like	-5.60013
▁get	-5.60675
▁go	-5.65252
▁what	-5.66201
▁then	-5.73577
▁because	-5.73904
▁time	-5.74853
▁was	-5.75479
▁not	-5.7574
▁don	-5.77201
▁please	-5.77516
▁how	-5.80265
▁as	-5.82026
▁take	-5.87493
ing	-5.91314
▁yes	-5.92733
▁from	-5.94353
d	-5.96742
▁about	-5.97028
▁an	-5.9899
▁need	-5.99357
▁want	-5.99523
▁right	-6.00457
▁would	-6.00612
▁here	-6.01651
▁when	-6.01934
▁know	-6.11651
▁one	-6.12896
▁should	-6.13072
▁our	-6.16077
▁too	-6.17165
▁just	-6.17506
▁out	-6.17591
▁they	-6.19004
▁no	-6.28911
▁let	-6.30519
▁now	-6.30869
▁good	-6.31767
▁by	-6.33327
re	-6.33924
▁all	-6.38505
▁see	-6.40148
▁going	-6.42054
▁after	-6.46159
▁been	-6.4633
▁since	-6.46439
▁up	-6.48574
▁more	-6.50362
▁them	-6.50844
ve	-6.51017
▁any	-6.51912
▁much	-6.52208
▁where	-6.5389
▁am	-6.54275
▁today	-6.56053
▁come	-6.58776
▁make	-6.58971
▁company	-6.59418
▁first	-6.59736
▁product	-6.60201
▁has	-6.61977
▁could	-6.62498
▁tell	-6.6281
▁use	-6.63028
▁people	-6.63371
ed	-6.64453
▁check	-6.64946
▁next	-6.65576
▁room	-6.66002
▁work	-6.66576
▁only	-6.66922
▁buy	-6.67127
▁sorry	-6.6813
▁won	-6.69081
▁give	-6.69663
▁okay	-6.69835
▁some	-6.71477
▁did	-6.71502
▁lot	-6.71628
▁order	-6.77075
▁or	-6.77179
▁well	-6.77713
▁many	-6.7773
▁why	-6.78332
▁bus	-6.79633
▁than	-6.80376
▁new	-6.80524
▁didn	-6.87282
▁sure	-6.88303
▁other	-6.91155
▁really	-6.91253
▁look	-6.92088
▁pay	-6.92941
▁before	-6.93467
▁last	-6.93533
▁long	-6.94139
▁he	-6.95808
▁2	-6.97997
▁change	-7.00769
▁heard	-7.01657
▁way	-7.01896
▁back	-7.03499
▁even	-7.04774
▁day	-7.05533
▁also	-7.06963
▁very	-7.08963
▁card	-7.10111
▁3	-7.10662
▁tomorrow	-7.11156
▁days	-7.1213
▁try	-7.12198
▁possible	-7.12777
▁meeting	-7.13079
▁who	-7.13233
▁us	-7.13678
▁eat	-7.13904
▁ask	-7.14328
▁week	-7.14882
▁which	-7.15215
▁over	-7.15827
▁better	-7.17145
▁number	-7.1757
▁again	-7.18822
▁wait	-7.18877
▁food	-7.18948
▁find	-7.19258
▁were	-7.2075
▁team	-7.21685
▁place	-7.2281
▁off	-7.23005
▁something	-7.2421
▁put	-7.24909
▁send	-7.25434
▁minutes	-7.25643
▁got	-7.26289
▁help	-7.28881
▁thank	-7.29607
▁1	-7.29663
▁call	-7.29698
▁does	-7.29772
▁little	-7.30133
▁away	-7.31506
▁already	-7.31812
▁business	-7.32269
▁price	-7.3233
e	-7.32588
▁had	-7.32743
▁hard	-7.33475
▁these	-7.33556
▁trip	-7.33676
▁made	-7.35355
▁different	-7.35402
▁still	-7.36037
▁store	-7.36324
▁while	-7.37519
▁around	-7.39226
▁exchange	-7.41543
▁year	-7.41948
▁left	-7.42414
▁10	-7.42918
▁two	-7.43572
▁doesn	-7.44234
▁bring	-7.45494
▁car	-7.46179
▁same	-7.46252
▁may	-7.46471
▁yesterday	-7.47674
▁bought	-7.47674
▁looking	-7.49591
!	-7.50241
▁must	-7.51285
▁reservation	-7.51644
▁ordered	-7.52572
▁isn	-7.52583
▁floor	-7.52645
▁bit	-7.52956
▁came	-7.5322
▁	-7.54054
▁home	-7.5416
▁show	-7.55845
▁5	-7.56939
▁size	-7.57184
▁leave	-7.57427
▁month	-7.57609
▁late	-7.58006
▁thought	-7.59045
▁station	-7.59071
▁products	-7.60452
▁person	-7.61828
▁anything	-7.62239
▁down	-7.62367
▁school	-7.62623
▁feel	-7.63009
▁subway	-7.6417
▁problem	-7.64866
▁soon	-7.65143
ly	-7.65284
▁phone	-7.65317
▁another	-7.6667
▁front	-7.67205
▁refund	-7.6733
▁used	-7.67747
▁hotel	-7.67747
▁said	-7.68282
▁hair	-7.68551
▁together	-7.68961
▁morning	-7.69097
▁discount	-7.698
▁say	-7.6993
▁seems	-7.70453
▁free	-7.7196
▁restaurant	-7.722
▁every	-7.72713
▁getting	-7.73122
▁office	-7.7322
▁most	-7.74236
▁course	-7.75002
▁yet	-7.75029
▁delivery	-7.76032
▁report	-7.76242
▁name	-7.77529
▁great	-7.78156
▁until	-7.7839
▁department	-7.81552
y	-7.81897
▁once	-7.83401
▁big	-7.83459
▁stop	-7.83749
▁yeah	-7.84093
▁keep	-7.84399
▁color	-7.84913
▁into	-7.85011
ble	-7.85677
in	-7.85864
▁airport	-7.86826
▁service	-7.86867
▁working	-7.869
▁book	-7.87624
▁ticket	-7.88364
▁wrong	-7.88635
▁such	-7.89469
▁difficult	-7.90432
▁4	-7.90474
▁available	-7.90647
▁dur	-7.91164
▁set	-7.92718
▁water	-7.94094
er	-7.94357
▁sales	-7.945
▁money	-7.9515
▁hours	-7.95461
▁coming	-7.964
▁looks	-7.96651
▁done	-7.96863
▁drink	-7.97091
▁without	-7.97713
▁never	-7.9839
th	-7.98591
▁bad	-7.98728
▁30	-7.99349
▁bag	-7.99423
▁charge	-7.99689
▁contract	-7.99797
▁menu	-7.99995
▁through	-8.00051
▁seat	-8.00327
▁always	-8.0061
▁start	-8.00786
▁using	-8.01064
▁hello	-8.01362
▁haven	-8.01699
▁payment	-8.01922
▁best	-8.02137
▁ago	-8.02502
▁recommend	-8.02553
▁taking	-8.0269
▁small	-8.0322
▁turn	-8.03628
▁him	-8.03729
▁contact	-8.041
▁date	-8.04255
▁fine	-8.05794
▁their	-8.06189
▁told	-8.06192
▁hour	-8.06193
▁she	-8.06416
▁visit	-8.06773
▁kind	-8.0844
▁each	-8.08997
▁schedule	-8.09278
▁went	-8.09822
▁else	-8.1002
▁side	-8.10439
▁mean	-8.11876
▁expensive	-8.12307
▁fee	-8.12659
▁cancel	-8.13596
▁case	-8.14443
▁popular	-8.14857
▁line	-8.15335
▁korean	-8.15528
▁clothes	-8.15731
▁nice	-8.15899
▁enough	-8.15948
▁being	-8.16101
▁movie	-8.16431
▁taxi	-8.16909
▁due	-8.17048
▁hospital	-8.17483
▁lost	-8.1771
▁quickly	-8.17939
al	-8.17961
▁flight	-8.1824
▁job	-8.18249
▁high	-8.18338
▁instead	-8.18376
▁friend	-8.18412
▁coffee	-8.186
▁guess	-8.19274
▁meal	-8.19362
▁open	-8.19447
▁credit	-8.20636
▁p	-8.21295
▁few	-8.21324
▁watch	-8.21372
▁things	-8.22206
▁walk	-8.22212
▁moment	-8.22484
▁gift	-8.22895
▁cannot	-8.22949
▁cost	-8.23615
▁usually	-8.24133
▁checked	-8.25238
▁receipt	-8.25304
▁night	-8.25307
▁amount	-8.25315
▁end	-8.25417
▁later	-8.2584
▁someone	-8.26043
▁performance	-8.26048
▁purchase	-8.26286
▁advance	-8.26531
▁apply	-8.26752
▁email	-8.27006
▁part	-8.27012
▁dutyfree	-8.27495
▁far	-8.27819
▁might	-8.28726
▁manager	-8.2873
▁early	-8.28976
▁information	-8.29724
▁called	-8.29823
▁write	-8.3017
▁items	-8.30381
▁pretty	-8.30476
▁stay	-8.30839
▁excuse	-8.30982
▁idea	-8.30984
▁20	-8.31156
▁medicine	-8.31349
▁train	-8.3152
▁prepare	-8.31745
▁return	-8.32113
▁plan	-8.32166
▁shop	-8.32385
▁doing	-8.32942
▁picture	-8.33175
▁dinner	-8.33549
▁class	-8.33823
▁cash	-8.34069
▁those	-8.34071
▁received	-8.3431
▁lunch	-8.3433
▁travel	-8.34799
▁having	-8.35122
▁saw	-8.35123
▁7	-8.35529
▁design	-8.35806
▁years	-8.36051
▁meet	-8.36196
r	-8.36464
▁short	-8.36521
▁hope	-8.36744
▁says	-8.37257
▁event	-8.37261
▁hot	-8.37599
▁famous	-8.37801
▁transfer	-8.38069
▁extra	-8.3809
▁everyone	-8.38894
▁arrive	-8.39186
▁wanted	-8.39208
n	-8.39518
▁test	-8.39575
▁thinking	-8.40079
▁wear	-8.40542
▁receive	-8.40822
▁inside	-8.40963
▁worry	-8.41117
▁care	-8.41322
▁worried	-8.41391
▁6	-8.41739
st	-8.42058
▁staff	-8.42239
▁often	-8.42297
▁request	-8.42747
▁per	-8.42924
▁sell	-8.43171
▁her	-8.43191
▁understand	-8.43397
▁his	-8.44158
▁taste	-8.44345
▁address	-8.44519
▁probably	-8.44534
▁item	-8.4497
▁earlier	-8.45409
▁trying	-8.45545
▁took	-8.45856
▁move	-8.46048
▁employee	-8.4613
o	-8.46208
▁total	-8.46639
▁house	-8.46887
▁area	-8.47197
▁seats	-8.47281
▁thanks	-8.47464
▁sent	-8.47482
▁choose	-8.47779
▁mind	-8.47809
▁family	-8.48381
▁table	-8.48579
g	-8.488
▁couldn	-8.48825
▁country	-8.48983
▁tour	-8.49065
▁finish	-8.49178
▁additional	-8.49246
▁old	-8.49559
▁korea	-8.49573
▁pick	-8.49725
▁wouldn	-8.49861
▁cut	-8.49875
▁outside	-8.49933
▁children	-8.50207
▁three	-8.50207
▁sign	-8.5027
▁takes	-8.50598
▁changed	-8.51045
i	-8.51093
▁oh	-8.51452
▁quit	-8.51452
▁nothing	-8.51757
▁wasn	-8.52105
▁alright	-8.52381
▁center	-8.52697
▁talk	-8.52743
▁asked	-8.54168
▁second	-8.54271
▁cold	-8.54283
▁remember	-8.5447
▁sold	-8.54605
▁building	-8.5463
▁special	-8.54679
▁everything	-8.55248
▁spicy	-8.55248
▁employees	-8.55424
▁talking	-8.55523
▁rice	-8.55572
▁both	-8.55802
▁busy	-8.55804
▁online	-8.55981
▁saying	-8.56203
▁group	-8.56248
▁reason	-8.5657
▁recently	-8.56884
▁computer	-8.56917
▁paid	-8.57209
▁booked	-8.57465
▁found	-8.57529
▁passport	-8.57867
▁important	-8.58867
▁matter	-8.58945
▁aren	-8.59236
▁separately	-8.59574
▁tickets	-8.59754
▁photo	-8.59978
▁8	-8.60038
▁park	-8.60157
▁sir	-8.60217
▁ready	-8.60246
▁main	-8.60566
▁close	-8.60771
▁maybe	-8.60906
▁hurt	-8.61093
▁english	-8.6124
▁least	-8.6124
▁luggage	-8.6124
▁seem	-8.61479
▁bank	-8.61928
▁enjoy	-8.61928
▁head	-8.62221
▁near	-8.62265
▁times	-8.63059
▁delivered	-8.63405
▁stock	-8.63537
▁shoes	-8.63655
▁paper	-8.63849
▁issue	-8.64315
▁air	-8.64382
▁o	-8.65664
▁almo	-8.66072
▁accident	-8.66391
▁entrance	-8.66523
▁chance	-8.66523
▁longer	-8.6672
▁hand	-8.6676
▁under	-8.66883
▁rooms	-8.66978
▁hear	-8.67477
▁customers	-8.67669
▁waiting	-8.68069
p	-8.68232
▁submit	-8.68346
▁shipping	-8.68348
▁program	-8.68634
▁correct	-8.69029
a	-8.69827
▁website	-8.69832
▁planning	-8.69832
▁comes	-8.69883
▁customer	-8.70154
▁calling	-8.70171
▁account	-8.70253
▁eating	-8.70359
▁add	-8.70644
▁skin	-8.70996
▁clean	-8.71245
▁pm	-8.71362
▁half	-8.71711
▁delicious	-8.721
▁city	-8.72108
▁light	-8.72781
k	-8.72802
c	-8.73084
▁child	-8.7403
▁overseas	-8.7405
▁weekend	-8.74065
▁red	-8.74195
▁hasn	-8.74215
▁ok	-8.74452
▁offer	-8.75807
▁seen	-8.76235
▁rest	-8.76548
▁large	-8.76566
▁making	-8.76798
▁thing	-8.76914
▁soup	-8.77059
▁follow	-8.77602
▁market	-8.77829
▁less	-8.78025
▁box	-8.78129
▁birthday	-8.78415
▁though	-8.78625
▁months	-8.78743
▁black	-8.78818
▁internet	-8.78822
▁happen	-8.78947
▁pass	-8.7922
▁project	-8.79342
nd	-8.79368
▁machine	-8.79774
▁treatment	-8.80058
u	-8.8026
▁period	-8.80888
▁love	-8.80934
▁friends	-8.81149
▁driver	-8.8149
▁tried	-8.81727
▁between	-8.82149
▁exit	-8.82573
▁true	-8.82577
▁actually	-8.82583
▁sounds	-8.83251
▁9	-8.83719
es	-8.84172
▁presentation	-8.84291
▁body	-8.84293
▁shouldn	-8.84618
▁easy	-8.84719
▁museum	-8.84719
▁chicken	-8.85153
▁exercise	-8.85402
▁full	-8.85547
▁dish	-8.85579
▁run	-8.85775
▁interview	-8.8583
▁dollars	-8.85966
▁insurance	-8.86029
▁15	-8.86312
▁books	-8.86344
▁bathroom	-8.86912
▁summer	-8.86912
▁drive	-8.87362
▁guide	-8.87383
▁finished	-8.87547
▁sale	-8.87659
▁started	-8.87664
▁similar	-8.87802
▁shuttle	-8.87802
▁exactly	-8.8783
▁parking	-8.88157
▁separate	-8.88392
▁prepared	-8.88702
▁play	-8.8871
▁fill	-8.88773
▁meat	-8.88873
▁companies	-8.89154
▁read	-8.8921
▁ride	-8.8929
▁expenses	-8.89717
▁exam	-8.89954
▁holiday	-8.89959
l	-8.90927
▁straight	-8.91351
▁goes	-8.91374
▁type	-8.9142
▁fun	-8.91671
▁list	-8.91725
▁pack	-8.91903
▁either	-8.9238
▁sauce	-8.9238
▁members	-8.92381
▁location	-8.92381
en	-8.92738
▁mistake	-8.92764
▁afternoon	-8.92849
▁suddenly	-8.92881
▁afraid	-8.93321
▁face	-8.93362
b	-8.9355
▁ice	-8.93588
▁club	-8.93751
▁coupon	-8.93756
▁nearby	-8.93796
▁cheaper	-8.93822
clock	-8.94213
▁friday	-8.94271
▁conference	-8.9475
▁system	-8.9475
▁rather	-8.94751
▁colors	-8.94761
▁shopping	-8.95235
▁applied	-8.95246
▁marketing	-8.9555
▁baby	-8.95714
▁happened	-8.95866
▁un	-8.96005
▁register	-8.96069
▁map	-8.96249
▁experience	-8.96438
▁sit	-8.96701
▁study	-8.96908
▁reserve	-8.96926
▁middle	-8.97177
▁process	-8.97762
▁fast	-8.97887
▁uncomfortable	-8.98165
▁desk	-8.98165
▁break	-8.98166
▁currently	-8.98196
▁seoul	-8.98662
▁situation	-8.98708
▁cup	-8.98725
▁weight	-8.98907
▁bed	-8.98941
▁present	-8.98986
ting	-8.99035
▁tired	-8.99163
▁careful	-8.99621
▁arrived	-8.99628
▁suppose	-8.99665
on	-8.99822
▁personal	-9.00227
▁evening	-9.00541
▁believe	-9.00677
▁myself	-9.00677
▁tv	-9.00682
▁mom	-9.00764
▁chinese	-9.01188
▁broken	-9.01196
▁rent	-9.01786
ther	-9.01831
▁increase	-9.02477
▁breakfast	-9.02734
f	-9.03077
▁alone	-9.03256
▁print	-9.0333
▁points	-9.03623
▁package	-9.03669
▁forward	-9.03779
able	-9.03857
▁difference	-9.03938
▁public	-9.04298
▁brought	-9.04305
▁data	-9.04305
▁shall	-9.04343
▁deliver	-9.04384
▁documents	-9.0467
▁ones	-9.04835
▁decide	-9.0511
▁driving	-9.05366
▁white	-9.05366
▁transportation	-9.05367
▁cream	-9.059
▁leaving	-9.059
▁happy	-9.05902
▁support	-9.06032
▁places	-9.06052
▁proceed	-9.06161
▁50	-9.06303
▁gone	-9.07081
▁plane	-9.07158
▁model	-9.07214
▁decided	-9.0724
▁concert	-9.07522
▁traffic	-9.07522
▁anyway	-9.07549
▁top	-9.07657
▁student	-9.07774
▁hurry	-9.08068
▁choice	-9.08618
▁makeup	-9.08674
▁released	-9.08713
▁base	-9.08892
▁rate	-9.08897
▁checking	-9.08936
▁whe	-9.08968
▁according	-9.09131
▁street	-9.0917
▁looked	-9.09194
▁hall	-9.09297
▁season	-9.09323
▁100	-9.09736
▁dishes	-9.09745
▁review	-9.09889
▁11	-9.1024
▁written	-9.10287
▁professor	-9.10846
▁dessert	-9.11164
▁drama	-9.11171
▁hurts	-9.11205
▁details	-9.11269
▁behind	-9.11411
▁gave	-9.11427
▁delayed	-9.11478
▁expected	-9.11489
▁b	-9.11647
▁cake	-9.11742
▁questions	-9.1186
▁low	-9.11922
▁forgot	-9.11978
▁sleep	-9.1224
▁students	-9.12287
▁kids	-9.12363
▁text	-9.1255
▁vacation	-9.12551
▁lower	-9.1259
▁costs	-9.12657
▁hold	-9.12736
▁boss	-9.1313
rd	-9.13343
▁massage	-9.13661
▁kim	-9.13718
▁explain	-9.13878
▁own	-9.14019
▁ever	-9.14253
▁party	-9.14381
▁repair	-9.15144
or	-9.15445
▁stand	-9.15598
▁parents	-9.15616
▁dress	-9.15628
▁young	-9.15923
▁door	-9.16003
▁promotion	-9.16508
▁weather	-9.16645
▁anyone	-9.16665
▁provide	-9.16706
▁drinks	-9.1704
▁wish	-9.17231
▁section	-9.17244
▁single	-9.17245
▁watching	-9.17343
le	-9.17445
▁form	-9.17464
▁become	-9.17787
▁cell	-9.17847
▁s	-9.18078
▁results	-9.18418
▁road	-9.18517
▁worked	-9.18838
▁selling	-9.19023
▁empty	-9.19062
▁overtime	-9.1908
▁deal	-9.19422
via	-9.19573
▁stomach	-9.19676
▁gate	-9.19679
▁asking	-9.19921
▁bill	-9.20202
▁doctor	-9.20304
▁running	-9.20319
▁12	-9.20353
▁buying	-9.20563
▁pain	-9.20995
▁regular	-9.21491
▁blue	-9.21539
▁somewhere	-9.21539
▁goods	-9.21878
▁cheap	-9.22073
▁convenient	-9.2212
▁client	-9.22121
▁wednesday	-9.22168
▁yourself	-9.22168
▁urgent	-9.22753
▁brand	-9.22757
▁foreign	-9.22758
▁feels	-9.22774
ic	-9.22777
▁re	-9.22857
▁agree	-9.23175
▁checkin	-9.23292
▁parts	-9.23382
▁life	-9.23439
▁fit	-9.2347
▁among	-9.23479
▁fish	-9.23765
▁join	-9.23869
ous	-9.24046
▁glad	-9.24079
▁local	-9.24079
▁art	-9.24229
▁previous	-9.24676
▁china	-9.24725
▁shipped	-9.24727
▁tea	-9.24859
▁enter	-9.24971
▁fare	-9.2507
▁laptop	-9.25373
▁normally	-9.25407
▁board	-9.25775
▁cosmetics	-9.25922
▁unit	-9.26054
▁view	-9.26406
▁pork	-9.26685
▁lose	-9.26687
▁pants	-9.26688
▁direction	-9.26729
ion	-9.27085
▁live	-9.27099
▁photos	-9.27147
h	-9.27254
▁whole	-9.27434
▁post	-9.27513
▁included	-9.2765
▁materials	-9.27716
▁wrap	-9.28011
▁library	-9.28014
▁camera	-9.28042
▁past	-9.2814
▁monday	-9.28685
▁comfortable	-9.28687
▁weeks	-9.28737
▁screen	-9.29088
▁makes	-9.29175
▁prefer	-9.29361
est	-9.29417
▁starts	-9.29544
▁attend	-9.29767
▁baggage	-9.30041
▁limit	-9.30588
▁taken	-9.3072
▁university	-9.30726
▁pool	-9.30727
▁purchased	-9.30764
▁compare	-9.31295
▁exhibition	-9.31417
▁corner	-9.31419
▁game	-9.31561
▁question	-9.31561
▁file	-9.31993
▁wallet	-9.3211
▁final	-9.32193
▁reserved	-9.32487
▁sweet	-9.32772
▁easily	-9.32809
▁license	-9.32809
▁appointment	-9.32809
▁message	-9.3281
▁counter	-9.32819
▁smell	-9.32845
▁certificate	-9.32952
▁ingredients	-9.33066
▁wonder	-9.33243
▁sudden	-9.33466
▁registration	-9.33513
▁beer	-9.33585
▁missing	-9.33652
▁production	-9.33657
▁starting	-9.33821
▁noodles	-9.3408
▁strong	-9.34137
▁fresh	-9.34221
▁regarding	-9.3426
▁point	-9.34434
▁moving	-9.34937
giving	-9.34942
▁document	-9.35148
▁completed	-9.3515
▁requested	-9.35263
▁issued	-9.35456
▁perm	-9.35495
▁general	-9.35608
▁currency	-9.35656
▁abroad	-9.35657
▁style	-9.35665
▁inconvenience	-9.35666
▁changing	-9.35683
▁kid	-9.35902
▁speak	-9.36022
▁share	-9.36137
▁news	-9.36235
▁anymore	-9.36381
▁destination	-9.36381
▁trouble	-9.36432
▁diet	-9.36588
▁application	-9.36606
▁security	-9.37111
▁allowed	-9.37144
▁app	-9.37927
v	-9.37975
▁cover	-9.37975
▁stores	-9.38186
▁inter	-9.38582
▁power	-9.38585
▁graduation	-9.38587
▁tonight	-9.38787
▁sound	-9.38893
▁tastes	-9.39075
▁passed	-9.3957
▁includ	-9.3963
▁canceled	-9.3979
▁current	-9.40038
▁shipment	-9.40088
▁material	-9.40422
▁major	-9.4071
▁tax	-9.40732
▁exact	-9.40796
▁continue	-9.41073
▁dont	-9.41181
▁fried	-9.41609
▁directly	-9.41628
▁training	-9.41645
▁interested	-9.41654
▁wash	-9.4219
▁answer	-9.42742
▁learn	-9.4275
▁catch	-9.43153
▁quality	-9.43156
▁buses	-9.4336
▁video	-9.43547
▁eye	-9.43561
▁depend	-9.43646
▁elevator	-9.43932
▁held	-9.43932
▁factory	-9.43937
▁related	-9.43958
less	-9.44157
w	-9.44543
▁heavy	-9.44719
▁properly	-9.44728
▁bar	-9.45147
▁button	-9.45151
▁level	-9.45517
▁window	-9.45534
▁pictures	-9.45866
▁press	-9.45924
▁40	-9.45964
▁site	-9.46072
▁focus	-9.46313
▁juice	-9.46313
▁research	-9.46313
▁salad	-9.46313
▁copy	-9.46315
▁bigger	-9.4632
▁eyes	-9.46694
▁caf	-9.4704
▁traveling	-9.47135
▁ahead	-9.4742
▁sometimes	-9.4756
▁simple	-9.47932
▁adults	-9.47946
▁appreciate	-9.48489
▁fall	-9.48529
▁sick	-9.48747
▁mother	-9.48756
▁minute	-9.49323
▁display	-9.49448
▁bread	-9.49579
▁four	-9.49579
0,000	-9.4974
▁notice	-9.50136
▁real	-9.50392
▁basic	-9.50407
▁double	-9.50411
▁felt	-9.50412
▁image	-9.5042
▁five	-9.50428
▁carry	-9.50429
▁leader	-9.50446
▁seeing	-9.50503
▁original	-9.51209
▁ship	-9.51252
▁kinds	-9.5168
▁pen	-9.5187
▁cafe	-9.5191
ar	-9.51916
▁definitely	-9.52103
▁wine	-9.52132
▁faster	-9.5216
▁opened	-9.52592
▁dry	-9.52644
▁bottle	-9.52728
▁movies	-9.52775
▁actor	-9.52791
▁spa	-9.52923
▁throw	-9.52954
▁along	-9.52957
▁restroom	-9.52959
▁mr	-9.53262
▁snacks	-9.5336
▁meals	-9.5345
▁participate	-9.53553
▁expense	-9.53611
▁wearing	-9.53788
▁police	-9.53816
▁saturday	-9.53816
▁hungry	-9.53817
▁women	-9.53817
▁conditioner	-9.53866
▁feeling	-9.53905
▁scheduled	-9.54035
▁goal	-9.54316
▁de	-9.54368
▁moved	-9.54572
▁semester	-9.54686
▁world	-9.54686
▁staying	-9.54739
▁age	-9.54747
▁walking	-9.54823
▁complete	-9.55262
▁accounting	-9.55312
▁al	-9.5537
▁amazing	-9.55563
▁budget	-9.55563
▁impossible	-9.55563
▁nervous	-9.55563
▁japanese	-9.55565
am	-9.55796
▁problems	-9.56145
▁borrow	-9.56315
▁yellow	-9.56448
▁mine	-9.5648
▁paying	-9.56629
▁customs	-9.56934
▁cleaning	-9.5708
▁cause	-9.57104
▁closed	-9.57115
▁fix	-9.57211
▁downtown	-9.57341
▁wondering	-9.57684
▁man	-9.57785
▁vari	-9.57786
▁fan	-9.58124
▁emergency	-9.58242
▁plans	-9.58701
▁touch	-9.58743
ation	-9.59073
▁hit	-9.59081
▁especially	-9.59151
▁beef	-9.59152
▁warm	-9.59205
▁10,000	-9.59278
▁damaged	-9.59279
▁dog	-9.59599
▁dye	-9.59809
▁install	-9.59928
▁convenience	-9.60068
▁planned	-9.60072
▁immediately	-9.60072
▁t	-9.60261
▁bags	-9.60433
▁normal	-9.60958
▁salary	-9.60994
▁sitting	-9.61023
▁needed	-9.61121
▁visiting	-9.6132
▁cook	-9.61484
▁studying	-9.61506
▁search	-9.61526
▁seafood	-9.61929
▁weird	-9.61929
▁missed	-9.62018
▁island	-9.62049
▁fixed	-9.62065
▁types	-9.62087
an	-9.62181
▁expect	-9.6247
▁cool	-9.62545
▁effective	-9.6282
▁anywhere	-9.62872
▁favorite	-9.62873
▁field	-9.62874
▁alcohol	-9.62874
▁key	-9.62882
▁include	-9.63026
▁w	-9.63129
ri	-9.63199
▁accept	-9.63681
▁apologize	-9.63825
▁college	-9.63825
▁fever	-9.63825
▁mail	-9.63827
ce	-9.63846
▁finally	-9.63889
▁24	-9.64274
it	-9.64446
▁suit	-9.64641
▁connect	-9.64646
▁pizza	-9.64747
▁match	-9.64772
▁except	-9.64777
▁member	-9.64784
▁milk	-9.64786
▁twice	-9.64786
▁swimming	-9.64786
▁booking	-9.65398
▁condition	-9.65434
▁dad	-9.65448
▁happens	-9.65481
ers	-9.6574
▁page	-9.65755
▁wrote	-9.65757
▁beach	-9.65757
▁quarter	-9.65758
▁drinking	-9.66231
▁president	-9.66737
▁chair	-9.66762
▁scent	-9.6681
▁interesting	-9.66866
▁dark	-9.67691
▁japan	-9.67726
▁festival	-9.67728
▁receipts	-9.67774
▁result	-9.67784
▁confirmed	-9.67844
▁works	-9.68163
▁lots	-9.68359
▁handle	-9.68495
▁shows	-9.68721
▁across	-9.68727
▁welcome	-9.68764
▁completely	-9.68782
▁checkout	-9.68814
▁depends	-9.69208
▁increased	-9.69226
▁deposit	-9.69605
▁health	-9.69701
▁burger	-9.69738
▁steak	-9.69738
▁fire	-9.69759
ity	-9.69788
▁score	-9.69795
▁keeps	-9.69811
▁restaurants	-9.7037
▁green	-9.70761
▁classes	-9.70817
▁advertisement	-9.70848
▁needs	-9.71167
▁liked	-9.71729
national	-9.71741
▁cheese	-9.71789
▁writing	-9.71789
se	-9.72116
,000	-9.72329
▁orders	-9.72492
▁oil	-9.72802
▁attention	-9.72831
▁couple	-9.72831
▁departure	-9.72831
▁several	-9.72831
▁tuesday	-9.72831
▁mentioned	-9.72883
▁carefully	-9.72931
▁busan	-9.72952
ro	-9.73154
▁shops	-9.73349
▁kitchen	-9.73883
▁winter	-9.73883
▁congratulations	-9.73978
▁option	-9.7406
▁smaller	-9.74078
▁ate	-9.74185
▁reservations	-9.74609
ate	-9.74854
▁bright	-9.74911
nual	-9.74942
▁coke	-9.74949
▁pasta	-9.74973
▁space	-9.75119
▁shape	-9.75237
▁safe	-9.75949
though	-9.75964
▁weekends	-9.75974
▁beautiful	-9.76022
▁thursday	-9.76022
▁opposite	-9.76023
▁consultation	-9.76024
▁stew	-9.76024
▁management	-9.76025
▁stops	-9.76171
▁accommodation	-9.7621
▁shower	-9.76432
z	-9.7648
kg	-9.76625
▁benefits	-9.76677
▁collect	-9.76967
▁specific	-9.77097
▁kept	-9.77109
▁fell	-9.7711
▁easier	-9.77112
▁located	-9.7715
▁surprised	-9.77184
▁clothing	-9.77238
▁opening	-9.77315
▁lipstick	-9.77321
▁fruit	-9.77355
▁letter	-9.77363
▁registered	-9.77403
▁boarding	-9.7756
▁exchanged	-9.77662
▁delay	-9.78078
▁quick	-9.78114
▁entire	-9.78159
▁standard	-9.78208
▁route	-9.78208
▁dangerous	-9.78209
▁tight	-9.7821
▁shirt	-9.7821
▁detail	-9.78357
▁confirm	-9.78902
▁loud	-9.79281
▁strange	-9.79289
▁foot	-9.79316
▁commercial	-9.79319
▁living	-9.79319
▁curious	-9.79319
▁method	-9.79584
▁added	-9.79709
▁charged	-9.79744
▁d	-9.8035
▁glass	-9.80428
▁loss	-9.80436
▁invoice	-9.80443
▁terminal	-9.80443
▁hi	-9.80451
▁crowded	-9.80455
▁men	-9.80464
▁graduate	-9.81322
▁avoid	-9.81579
▁resident	-9.81579
▁financial	-9.81579
▁medical	-9.8158
▁announcement	-9.8158
▁hang	-9.81718
▁c	-9.81724
▁cooking	-9.81909
▁drop	-9.8191
▁f	-9.82683
▁corporate	-9.82729
▁future	-9.82729
▁deadline	-9.82729
▁percent	-9.8273
▁unfortunately	-9.82734
▁traveler	-9.82964
▁language	-9.83087
▁opinion	-9.83108
to	-9.83337
▁reduce	-9.83615
▁feet	-9.83789
▁discounts	-9.83813
▁music	-9.83865
▁approval	-9.83891
▁particular	-9.83891
▁push	-9.83891
▁countries	-9.83892
▁assignment	-9.83893
▁prices	-9.8403
▁patient	-9.84301
at	-9.84394
▁reading	-9.84587
▁newly	-9.84876
▁listen	-9.84973
▁serious	-9.8502
▁forget	-9.85053
▁further	-9.85068
▁gym	-9.85068
▁fully	-9.85184
1	-9.85203
▁considering	-9.853
▁contacted	-9.85864
ness	-9.86029
▁discounted	-9.86189
▁arrival	-9.86258
▁kpop	-9.86258
▁perfume	-9.86258
▁soccer	-9.86258
▁higher	-9.86449
ol	-9.86532
▁piece	-9.86727
▁became	-9.87463
▁daughter	-9.87463
▁kimchi	-9.87463
▁volume	-9.87463
▁round	-9.87464
▁wrapping	-9.87467
▁lunchtime	-9.87474
▁hate	-9.87476
▁5,000	-9.87554
▁g	-9.87956
▁changes	-9.87983
▁remove	-9.88398
▁slow	-9.88598
ally	-9.88634
▁beginning	-9.88683
▁itself	-9.88683
▁nowadays	-9.88683
▁hong	-9.88686
▁theater	-9.88687
▁slightly	-9.88693
▁gotten	-9.88704
▁development	-9.88705
▁physical	-9.88721
▁fees	-9.88821
▁besides	-9.8892
▁joined	-9.88933
▁against	-9.89317
▁postpone	-9.89655
ra	-9.89701
▁boyfriend	-9.89917
▁quantity	-9.89917
▁mobile	-9.89923
▁500	-9.89925
▁promotional	-9.90203
▁note	-9.90489
▁ring	-9.90616
▁pieces	-9.9068
ang	-9.90682
▁adjust	-9.90752
▁policy	-9.91167
▁relief	-9.91167
▁worse	-9.91167
▁neighborhood	-9.91167
▁surgery	-9.91167
▁million	-9.91168
▁temperature	-9.91168
▁membership	-9.91168
▁pink	-9.91171
▁rental	-9.91236
ch	-9.9174
▁organize	-9.91962
▁lead	-9.92104
▁spend	-9.92162
▁inform	-9.92303
▁quiet	-9.92385
▁bottom	-9.92433
▁ceremony	-9.92433
▁therapy	-9.92433
▁neck	-9.92433
▁town	-9.92434
▁basement	-9.9244
▁teacher	-9.92477
▁cards	-9.92543
▁given	-9.92993
el	-9.93
▁provided	-9.93013
2	-9.93014
▁error	-9.93038
ive	-9.93186
▁playing	-9.93195
3	-9.93252
▁replace	-9.93459
day	-9.93478
▁e	-9.93521
▁domestic	-9.93715
▁variety	-9.93715
▁shame	-9.93716
▁atmosphere	-9.93717
▁father	-9.93718
▁position	-9.93719
▁national	-9.93797
▁50,000	-9.93822
▁means	-9.93961
▁actors	-9.94055
▁lately	-9.94216
▁sports	-9.9424
▁heat	-9.94307
▁vegetables	-9.94343
▁cars	-9.94388
▁watched	-9.94446
▁natural	-9.94871
▁suggest	-9.94872
▁switch	-9.94879
▁hire	-9.94954
▁cancellation	-9.95014
▁equipment	-9.95014
▁immigration	-9.95014
▁laundry	-9.95014
▁married	-9.95014
▁stairs	-9.95014
▁target	-9.95014
▁u	-9.95049
▁ball	-9.95226
▁snack	-9.95707
▁ended	-9.95724
▁ma	-9.96168
▁fair	-9.96282
▁preparing	-9.9633
▁salon	-9.9633
▁stage	-9.9633
▁boat	-9.96331
▁sunday	-9.96332
▁foundation	-9.96357
ent	-9.96655
▁mall	-9.96728
▁waste	-9.96862
▁shot	-9.97022
▁airline	-9.97037
▁function	-9.97052
▁cab	-9.97621
▁stuff	-9.97622
▁fault	-9.97625
▁placed	-9.97641
▁agency	-9.97663
▁necessary	-9.97663
▁powder	-9.97663
▁thousand	-9.97663
▁version	-9.97663
▁orange	-9.97663
▁wedding	-9.97663
▁third	-9.97665
▁1,000	-9.97754
▁workout	-9.97776
▁packed	-9.98037
▁tourist	-9.98436
▁terms	-9.98531
▁lobby	-9.99014
▁daily	-9.99015
▁assistant	-9.99015
▁salty	-9.99035
▁exist	-9.99409
▁consider	-9.99969
ies	-9.99977
▁tag	-10.002
▁usual	-10.0034
▁broke	-10.0036
▁control	-10.0038
▁huge	-10.0038
▁inconvenient	-10.0038
▁allergic	-10.0039
▁blood	-10.0039
▁arm	-10.0039
▁social	-10.005
▁grab	-10.0051
▁miss	-10.0054
▁holidays	-10.007
▁smells	-10.0144
▁practice	-10.0151
up	-10.0158
▁official	-10.0172
▁foods	-10.0176
▁distance	-10.0177
▁knew	-10.0177
▁sense	-10.0177
▁battery	-10.0178
▁director	-10.0178
▁confused	-10.0179
▁coat	-10.0185
li	-10.0199
▁harder	-10.0229
▁m	-10.0234
▁procedure	-10.0261
▁purpose	-10.0262
▁noise	-10.0263
▁guests	-10.0282
▁towels	-10.0301
▁rush	-10.0305
▁treat	-10.0305
▁ordering	-10.0306
▁ran	-10.0307
▁toilet	-10.0318
▁complicated	-10.0318
▁status	-10.0318
▁stuck	-10.0318
▁studied	-10.0318
▁tradition	-10.0318
▁vietnam	-10.0318
▁draft	-10.0319
▁displayed	-10.034
▁served	-10.0342
▁contents	-10.0349
il	-10.037
▁issues	-10.0382
▁words	-10.0427
▁introduce	-10.044
▁select	-10.0447
▁beforehand	-10.0461
▁drunk	-10.0461
▁estimate	-10.0461
▁length	-10.0461
▁kong	-10.0461
▁fastest	-10.0464
▁nearest	-10.0465
▁whenever	-10.0467
▁processed	-10.0499
la	-10.0516
▁sea	-10.0538
▁monitor	-10.0552
▁pre	-10.0553
▁hamburger	-10.0555
▁soft	-10.0605
▁brochure	-10.0606
▁chocolate	-10.0606
▁headache	-10.0606
▁wife	-10.0606
▁wow	-10.0606
▁brother	-10.0608
▁slowly	-10.0612
▁larger	-10.0614
▁fat	-10.0629
▁weren	-10.0645
▁rain	-10.0658
▁standing	-10.0673
ur	-10.0687
▁visited	-10.0702
▁leg	-10.0703
▁tshirt	-10.0704
▁opinions	-10.0705
▁depart	-10.0712
▁manage	-10.0724
▁consumers	-10.0727
▁certain	-10.0748
▁perfect	-10.0748
▁branch	-10.0751
▁express	-10.0752
▁escalator	-10.0753
▁ointment	-10.0753
▁expiration	-10.0753
▁explanation	-10.0753
▁caught	-10.0753
▁row	-10.0753
▁legal	-10.0774
▁legs	-10.0799
▁cleaned	-10.0804
▁record	-10.0815
▁hands	-10.0832
▁effect	-10.0857
▁sample	-10.0858
▁pills	-10.0858
▁discuss	-10.086
▁speed	-10.0875
▁save	-10.0884
▁background	-10.0902
▁history	-10.0902
▁dirty	-10.0903
▁installed	-10.0924
out	-10.0942
▁regulations	-10.0985
▁begin	-10.1009
▁blanket	-10.101
▁sizes	-10.1015
▁ten	-10.1015
▁promote	-10.1028
us	-10.1042
8	-10.1046
▁clear	-10.1049
▁activities	-10.1054
▁girlfriend	-10.1054
▁ground	-10.1054
▁receiving	-10.1054
▁september	-10.1054
▁construction	-10.1054
▁upset	-10.1054
ul	-10.1056
▁nights	-10.106
▁owner	-10.1124
▁flowers	-10.1184
▁solve	-10.1196
▁celebrities	-10.1208
▁decision	-10.1208
▁europe	-10.1208
▁unique	-10.1208
▁stamp	-10.1208
▁guardian	-10.1208
▁plastic	-10.1208
▁proposal	-10.1208
▁fries	-10.1208
▁pharmacy	-10.1208
▁topic	-10.1211
▁sending	-10.1214
▁originally	-10.1217
▁lotion	-10.1236
▁nose	-10.1241
▁events	-10.1273
do	-10.1293
ry	-10.1312
▁profit	-10.1322
▁pair	-10.1324
▁bowl	-10.1326
▁cases	-10.1356
▁jeju	-10.1363
▁august	-10.1364
▁private	-10.1364
▁jacket	-10.1364
▁overall	-10.1364
▁son	-10.1368
▁lie	-10.1408
▁symptoms	-10.1409
▁washing	-10.1419
▁dramas	-10.1431
ist	-10.1435
ma	-10.148
▁spot	-10.1485
▁content	-10.1488
▁known	-10.1488
▁serve	-10.1493
▁industry	-10.1523
▁packaging	-10.1523
▁supplies	-10.1523
▁tough	-10.1523
▁pull	-10.1523
▁law	-10.1523
▁heart	-10.153
▁cooked	-10.1546
▁fact	-10.1546
▁required	-10.1547
▁muscles	-10.1548
▁bottles	-10.1565
▁samples	-10.157
ca	-10.164
▁film	-10.165
▁direct	-10.1678
▁individual	-10.1679
▁conditions	-10.1683
▁human	-10.1684
▁deputy	-10.1684
▁strategy	-10.1684
▁tasty	-10.1684
▁submitted	-10.1684
▁confirmation	-10.1685
▁however	-10.1693
▁100,000	-10.1697
▁learning	-10.1741
▁buyer	-10.1767
▁recommended	-10.1795
▁draw	-10.1805
▁export	-10.1811
▁release	-10.1826
▁reach	-10.1835
▁facilities	-10.1848
▁range	-10.1848
▁terrible	-10.1848
▁trade	-10.1848
▁wake	-10.1848
▁average	-10.1848
▁device	-10.1848
▁admission	-10.1848
▁inspection	-10.1848
▁agreement	-10.1849
▁hospitalized	-10.1849
▁sad	-10.1858
▁bills	-10.187
▁connected	-10.187
▁entered	-10.1881
nna	-10.1891
▁caused	-10.19
ated	-10.1916
▁services	-10.1972
▁operation	-10.1985
▁flavor	-10.2001
▁parttime	-10.201
▁poor	-10.201
▁ceo	-10.2014
▁gangnam	-10.2014
▁storage	-10.2015
▁regardless	-10.2015
▁safety	-10.2015
▁hairstyle	-10.2016
▁wide	-10.2016
▁dust	-10.2016
▁scared	-10.2019
▁notify	-10.202
▁boxes	-10.2021
▁acting	-10.2034
▁repaired	-10.2052
▁showing	-10.2056
5	-10.2085
▁returned	-10.21
7	-10.2105
ement	-10.2123
ho	-10.2138
▁la	-10.2138
▁muscle	-10.2157
▁update	-10.2158
▁attach	-10.2171
▁states	-10.2181
▁competition	-10.2184
▁cotton	-10.2184
▁progress	-10.2184
▁sets	-10.2199
▁guys	-10.2205
▁personally	-10.2207
▁ch	-10.2215
▁song	-10.2254
▁na	-10.2272
▁passing	-10.2297
side	-10.2309
▁require	-10.2332
▁shrimp	-10.2333
▁guy	-10.2338
is	-10.2352
▁ocean	-10.2356
▁celebrity	-10.2356
▁parcel	-10.2356
▁region	-10.2356
▁sister	-10.2356
▁gain	-10.2358
▁math	-10.2363
▁learned	-10.2386
▁cleaner	-10.2388
▁media	-10.2442
un	-10.2451
um	-10.2451
▁refer	-10.247
▁grade	-10.2488
▁launch	-10.2491
▁grow	-10.2499
▁vehicle	-10.2511
▁recruit	-10.2512
mm	-10.2516
▁stick	-10.2523
▁lecture	-10.2528
▁basket	-10.2532
▁biggest	-10.2532
▁exercising	-10.2532
▁husband	-10.2532
▁mouth	-10.2532
▁technology	-10.2532
▁haircut	-10.2532
▁glasses	-10.2534
▁clients	-10.2545
▁bother	-10.2571
end	-10.2591
4	-10.26
▁cigarettes	-10.2601
▁holding	-10.2615
▁hey	-10.2641
▁develop	-10.2676
▁sweat	-10.2683
▁statement	-10.2695
▁mark	-10.2697
▁severe	-10.2706
▁appropriate	-10.271
▁babies	-10.271
▁bike	-10.271
▁lounge	-10.271
▁self	-10.271
▁indeed	-10.271
▁alley	-10.2711
▁manual	-10.2711
▁lucky	-10.2712
▁stopped	-10.2713
▁oily	-10.2718
▁warehouse	-10.2718
▁discharged	-10.2734
▁latest	-10.2774
▁dressing	-10.2793
▁teach	-10.286
▁trend	-10.2861
▁damage	-10.2867
▁reasons	-10.2873
▁senior	-10.2879
▁character	-10.288
▁understanding	-10.2881
▁lights	-10.2891
▁con	-10.2891
▁inflight	-10.2892
▁professional	-10.2892
▁survey	-10.2892
▁boring	-10.2892
▁operating	-10.2893
▁code	-10.2893
▁keyboard	-10.2893
▁usage	-10.29
ne	-10.2912
lo	-10.2915
▁eaten	-10.2923
▁culture	-10.2933
▁foreigners	-10.2943
▁leaves	-10.3017
ish	-10.303
▁subject	-10.3066
▁courier	-10.3077
▁grateful	-10.3077
▁leather	-10.3077
▁shampoo	-10.3077
▁mask	-10.3077
▁apartment	-10.3078
▁attendance	-10.3078
▁homework	-10.308
▁attached	-10.3092
▁detailed	-10.3099
▁pot	-10.3149
ment	-10.3162
▁lack	-10.3239
▁import	-10.3246
▁mountain	-10.3258
▁response	-10.326
▁electronic	-10.3261
▁adult	-10.3263
▁password	-10.3266
▁vegetarian	-10.3266
▁visa	-10.3266
▁july	-10.3268
▁musical	-10.3271
ng	-10.3282
▁wall	-10.3283
▁dis	-10.3317
▁helped	-10.3346
▁signed	-10.3347
ary	-10.3351
age	-10.3363
▁step	-10.3368
j	-10.3378
▁hearing	-10.3408
▁operate	-10.3429
▁raise	-10.3432
▁discharge	-10.3433
▁60	-10.3438
▁ways	-10.3439
▁secret	-10.3453
▁actual	-10.3454
▁honest	-10.3454
ie	-10.3458
▁nail	-10.3458
▁duty	-10.3458
▁arriving	-10.3458
▁bonus	-10.3458
▁homepage	-10.3458
▁maximum	-10.3458
▁salmon	-10.3458
▁vacuum	-10.3458
▁worth	-10.3458
▁story	-10.3459
▁automatically	-10.3459
▁raw	-10.3459
▁wrapped	-10.3459
▁outdoor	-10.3461
▁below	-10.3467
▁mixed	-10.3467
cm	-10.3472
▁applying	-10.348
▁cat	-10.3481
▁20,000	-10.3485
ac	-10.3486
▁programs	-10.3502
▁printed	-10.3507
▁menus	-10.352
▁exercises	-10.3542
as	-10.3549
▁beans	-10.3601
▁25	-10.3623
▁state	-10.3631
▁dates	-10.3633
▁appear	-10.3641
x	-10.3643
▁recent	-10.365
▁extreme	-10.3654
▁excited	-10.3654
▁sensitive	-10.3654
▁stadium	-10.3654
▁stirfrie	-10.3654
▁posture	-10.3654
▁spent	-10.3655
▁liquid	-10.3656
▁prohibited	-10.3657
▁plate	-10.3657
▁portion	-10.3658
▁fitting	-10.3659
▁prescribed	-10.3663
▁remaining	-10.3666
▁younger	-10.3667
▁wind	-10.3673
▁checkup	-10.3673
ver	-10.3705
▁sleeping	-10.3749
▁cross	-10.3827
▁improve	-10.3828
won	-10.3852
▁opportunity	-10.3854
▁worn	-10.3854
▁prescription	-10.3855
▁south	-10.3855
▁co	-10.3856
▁disappointed	-10.3856
▁finance	-10.3856
▁claim	-10.3857
▁cheapest	-10.3858
▁solution	-10.3858
▁americano	-10.3861
▁singer	-10.3861
▁healthy	-10.3862
▁shoe	-10.3863
▁urgently	-10.387
▁amus	-10.3877
▁speaker	-10.3879
▁packs	-10.3885
▁weak	-10.3915
▁gas	-10.393
▁closes	-10.3939
▁weekdays	-10.3949
▁reviews	-10.395
▁sells	-10.4004
▁likely	-10.4012
▁format	-10.4016
▁interest	-10.4021
▁potato	-10.4057
▁confident	-10.4058
▁advertising	-10.4059
▁asleep	-10.4059
▁deep	-10.4059
▁incheon	-10.4059
▁spaghetti	-10.4059
▁swollen	-10.4059
▁umbrella	-10.4059
▁education	-10.4059
▁elementary	-10.4059
▁pressure	-10.4059
▁brown	-10.4059
▁cast	-10.406
no	-10.406
▁15,000	-10.4067
▁older	-10.4083
▁offered	-10.4127
▁rules	-10.4218
▁tall	-10.4222
▁dri	-10.4244
▁extend	-10.4254
related	-10.4261
person	-10.4261
▁birth	-10.4266
▁airplane	-10.4267
▁demand	-10.4267
▁dream	-10.4267
▁french	-10.4267
▁frozen	-10.4267
▁increasing	-10.4267
▁split	-10.4267
▁wifi	-10.4267
▁instant	-10.4267
▁transaction	-10.4267
▁wound	-10.4267
▁nails	-10.4268
▁suitable	-10.427
▁fits	-10.4275
▁beds	-10.4279
▁session	-10.4281
▁setting	-10.4286
▁meetings	-10.4288
▁grades	-10.4289
▁raining	-10.4306
ong	-10.4333
▁rid	-10.439
▁fruits	-10.4431
▁tie	-10.4437
▁arrange	-10.4453
▁download	-10.4466
▁stress	-10.4466
▁chose	-10.4478
▁apart	-10.4479
▁chef	-10.448
▁government	-10.448
▁personnel	-10.448
▁sneakers	-10.448
▁pocket	-10.448
▁software	-10.448
▁purifier	-10.448
▁temporary	-10.448
▁funny	-10.448
▁suits	-10.4482
▁wave	-10.4491
▁channel	-10.4499
▁selected	-10.4499
▁printer	-10.45
▁k	-10.4506
▁fans	-10.451
pm	-10.4517
▁limited	-10.4521
▁di	-10.4526
▁charger	-10.4535
▁tourists	-10.4575
▁cap	-10.4582
▁iced	-10.4604
board	-10.4626
▁heading	-10.4649
▁options	-10.4661
▁lines	-10.4663
▁directions	-10.4684
▁chairs	-10.4691
▁internal	-10.4695
▁broadcast	-10.4697
▁cellphone	-10.4697
▁chief	-10.4697
▁mirror	-10.4697
▁smoking	-10.4697
▁sushi	-10.4697
▁yep	-10.4698
▁thoroughly	-10.4698
▁scary	-10.4699
ory	-10.4701
▁2,000	-10.4718
▁towel	-10.4723
▁gifts	-10.4747
▁effects	-10.4764
▁picked	-10.4791
▁hat	-10.4811
▁sour	-10.4827
▁projects	-10.4853
▁da	-10.4858
▁bleach	-10.4891
▁computers	-10.4892
minute	-10.4913
▁bulk	-10.4919
▁examination	-10.4919
▁female	-10.4919
▁sauna	-10.4919
▁seminar	-10.4919
▁simply	-10.4919
▁yoga	-10.4919
▁latte	-10.4919
▁ramen	-10.492
▁perform	-10.492
▁wireless	-10.492
▁closing	-10.492
▁artist	-10.4921
▁concerned	-10.4925
▁safely	-10.4929
▁spring	-10.4946
▁souvenir	-10.4948
▁searched	-10.4951
▁dollar	-10.4953
▁listening	-10.4971
▁calls	-10.5024
▁ti	-10.5036
▁requests	-10.5091
10	-10.5096
losing	-10.5098
▁areas	-10.51
▁cloth	-10.5118
line	-10.5135
▁favor	-10.5145
▁common	-10.5147
▁excellent	-10.5147
▁maintain	-10.5147
▁preparation	-10.5147
▁purchasing	-10.5147
▁refrigerator	-10.5147
▁remote	-10.5147
▁waterproof	-10.5147
▁bookstore	-10.5147
▁multiple	-10.5147
▁medium	-10.5147
▁defective	-10.5147
▁identification	-10.5147
▁transferred	-10.5149
▁band	-10.515
▁assigned	-10.5155
▁teams	-10.5162
▁launched	-10.5164
ta	-10.5175
▁installment	-10.518
▁cosmetic	-10.5184
▁flower	-10.5186
▁organized	-10.5202
▁shoulder	-10.5228
▁attending	-10.5238
▁burn	-10.5265
▁v	-10.5273
▁ideas	-10.5282
▁workers	-10.5313
▁games	-10.5333
▁gather	-10.5339
▁smoke	-10.5352
▁calculate	-10.5354
▁li	-10.5357
▁divide	-10.5369
ling	-10.5372
▁refunded	-10.5372
▁thick	-10.5376
▁thin	-10.5379
▁baseball	-10.5379
▁chuseok	-10.5379
▁cushion	-10.5379
▁dawn	-10.5379
▁medication	-10.5379
▁trash	-10.5379
▁carrier	-10.5379
▁stationery	-10.5379
▁injection	-10.5379
▁dropped	-10.538
▁role	-10.538
▁trust	-10.5381
▁scan	-10.5381
▁refill	-10.5382
▁ends	-10.5382
▁pickup	-10.5383
▁informed	-10.5403
▁l	-10.5404
▁riding	-10.5409
▁article	-10.5417
▁consumer	-10.5421
▁70	-10.5427
▁spare	-10.5428
▁roll	-10.5441
▁filled	-10.5448
▁features	-10.5484
▁r	-10.5499
▁flights	-10.5524
▁taxis	-10.5552
be	-10.5565
▁cups	-10.5588
▁revise	-10.5591
▁act	-10.5602
▁relax	-10.5604
▁upload	-10.5604
▁addition	-10.5614
▁electric	-10.5617
▁academy	-10.5617
▁comfortably	-10.5617
▁economy	-10.5617
▁penalty	-10.5617
▁plenty	-10.5617
▁resources	-10.5617
▁value	-10.5617
▁declaration	-10.5617
▁admitted	-10.5617
▁investment	-10.5617
▁celebrate	-10.5618
▁bleeding	-10.5621
▁helpful	-10.5623
▁200	-10.5624
▁wood	-10.5624
▁indoor	-10.5633
he	-10.5639
▁su	-10.5642
▁songs	-10.5653
▁pencil	-10.5662
tally	-10.5662
▁noodle	-10.5666
▁intern	-10.5669
rew	-10.567
▁monthly	-10.5712
pa	-10.5738
▁tip	-10.5747
▁ba	-10.5812
▁pro	-10.5831
▁combo	-10.5861
▁commission	-10.5861
▁rumor	-10.5861
▁zone	-10.5861
▁bakery	-10.5861
▁award	-10.5861
▁lee	-10.5861
▁stolen	-10.5862
▁belt	-10.5865
ance	-10.5865
▁clearly	-10.5869
▁approved	-10.5874
▁seal	-10.5875
▁closer	-10.5878
▁marked	-10.5879
▁regularly	-10.588
▁3,000	-10.5883
▁largest	-10.5888
▁departing	-10.5907
de	-10.5908
▁ta	-10.5909
▁becomes	-10.5915
▁aware	-10.5936
▁designate	-10.5947
▁tours	-10.5954
▁parked	-10.5957
▁concentrate	-10.6
▁checks	-10.607
5,000	-10.607
▁reported	-10.6082
▁track	-10.6084
▁decrease	-10.6085
▁strength	-10.6103
▁blow	-10.6109
▁american	-10.6111
▁partner	-10.6111
▁balance	-10.6111
▁burden	-10.6111
▁expand	-10.6111
▁hobby	-10.6111
▁minimum	-10.6111
▁negotiation	-10.6111
▁recognize	-10.6111
▁signature	-10.6111
▁hiking	-10.6111
▁hiring	-10.6111
▁noisy	-10.6111
▁skirt	-10.6111
▁sugar	-10.6111
▁ankle	-10.6111
▁copies	-10.6111
▁entertainment	-10.6111
▁bored	-10.6111
▁gold	-10.6112
▁male	-10.6113
▁none	-10.6141
▁han	-10.6155
▁covered	-10.6156
▁shown	-10.6158
▁environment	-10.6161
▁measure	-10.6167
▁effort	-10.6167
▁rule	-10.6171
▁word	-10.6171
rs	-10.6208
▁23	-10.6215
▁stayed	-10.6243
▁others	-10.6247
▁pa	-10.6264
▁asia	-10.6312
▁min	-10.6332
▁build	-10.6341
▁mention	-10.6355
▁tests	-10.636
▁access	-10.6367
▁cheer	-10.6367
▁bulgogi	-10.6368
▁cafeteria	-10.6368
▁envelope	-10.6368
▁extension	-10.6368
▁representative	-10.6368
▁spray	-10.6368
▁syrup	-10.6368
▁york	-10.6368
▁strike	-10.6368
▁mode	-10.6368
▁hr	-10.6369
▁sun	-10.6371
▁belly	-10.6372
▁height	-10.6372
▁individually	-10.6375
▁kg	-10.6384
▁imported	-10.6385
▁sp	-10.6391
9	-10.6398
▁clock	-10.6399
ped	-10.6402
▁bangs	-10.6406
ant	-10.6409
ba	-10.6417
▁introduced	-10.6421
▁idol	-10.6435
▁guest	-10.6435
▁coins	-10.6438
▁painting	-10.6464
▁designer	-10.6472
▁mo	-10.6507
▁sh	-10.6579
ty	-10.6585
▁ji	-10.66
▁ex	-10.6612
▁load	-10.6617
hour	-10.6626
▁calm	-10.6626
▁successful	-10.6626
▁salt	-10.6627
▁sandwich	-10.6629
▁prevent	-10.663
▁sort	-10.663
▁familiar	-10.6631
▁impressive	-10.6631
▁palace	-10.6631
▁resume	-10.6631
▁socks	-10.6631
▁welfare	-10.6631
▁worst	-10.6631
▁zoo	-10.6631
▁evaluation	-10.6631
▁booklet	-10.6631
▁above	-10.6631
▁satisfied	-10.6631
▁example	-10.6631
▁unlike	-10.6631
▁kick	-10.6631
▁earth	-10.6632
▁disappeared	-10.6638
▁earn	-10.6639
▁mistaken	-10.6643
▁drawer	-10.6653
▁statements	-10.6653
▁jam	-10.6657
▁lighter	-10.6661
▁instructions	-10.6671
▁tend	-10.6675
▁till	-10.6675
▁te	-10.6703
▁ha	-10.6707
▁defect	-10.6717
▁action	-10.6756
▁papers	-10.6762
ha	-10.6767
ping	-10.679
▁web	-10.6792
▁eggs	-10.6799
time	-10.6841
▁bean	-10.6873
▁se	-10.6883
room	-10.6892
▁positive	-10.6896
▁risk	-10.6897
▁tomato	-10.6899
▁transport	-10.69
relevant	-10.6901
▁confusing	-10.6901
▁fabric	-10.6901
▁october	-10.6901
▁sashimi	-10.6901
▁tiring	-10.6901
▁administration	-10.6901
▁tower	-10.6901
▁blog	-10.6901
▁responsible	-10.6902
▁employment	-10.6902
▁booth	-10.6902
▁specifically	-10.6902
▁chopsticks	-10.6915
▁basis	-10.6919
▁reissued	-10.6923
▁cute	-10.6943
▁poster	-10.6944
▁18	-10.6968
▁badly	-10.6972
▁reaction	-10.6977
▁toward	-10.698
▁pill	-10.6982
▁container	-10.6983
▁earphones	-10.6986
▁runs	-10.7008
▁14	-10.7008
▁skip	-10.7044
ee	-10.7046
▁po	-10.7087
▁vi	-10.711
▁letters	-10.7117
▁block	-10.7138
▁lift	-10.7151
▁mix	-10.7166
▁broth	-10.7176
▁port	-10.7177
▁apparently	-10.7179
▁backpack	-10.7179
▁essence	-10.7179
▁facility	-10.7179
▁input	-10.7179
▁krw	-10.7179
▁necklace	-10.7179
▁pilates	-10.7179
▁responsibility	-10.7179
▁typhoon	-10.7179
▁midnight	-10.7179
▁texture	-10.7179
▁newspaper	-10.7179
▁shade	-10.7179
▁anniversary	-10.7179
▁frequently	-10.718
▁inquiry	-10.718
▁chosen	-10.7182
▁varies	-10.7184
▁cable	-10.7185
▁failed	-10.7187
▁ward	-10.719
▁300	-10.7196
ak	-10.7199
▁coupons	-10.7202
▁th	-10.7231
▁takeout	-10.7232
▁posted	-10.7234
▁allow	-10.725
▁sa	-10.7253
▁pens	-10.7255
▁win	-10.726
▁searching	-10.7261
▁scene	-10.7265
▁midterm	-10.7265
▁competitor	-10.7266
▁contracts	-10.7266
▁task	-10.7267
▁joining	-10.7299
▁figure	-10.731
▁paint	-10.732
▁experienced	-10.7329
me	-10.7369
po	-10.7374
▁tasks	-10.7374
▁19	-10.7414
ful	-10.7425
▁shoot	-10.7437
▁portions	-10.746
▁super	-10.7463
▁author	-10.7464
▁agenda	-10.7464
▁capacity	-10.7464
▁concept	-10.7464
▁furniture	-10.7464
▁mouse	-10.7464
▁samsung	-10.7464
▁afterward	-10.7464
▁wore	-10.7464
▁relationship	-10.7464
▁inventory	-10.7464
▁transferring	-10.7464
▁curry	-10.7465
▁navigation	-10.7465
▁pour	-10.7465
▁potatoes	-10.7467
▁soda	-10.747
▁locker	-10.7474
▁whatever	-10.7482
ot	-10.7484
way	-10.7488
▁treated	-10.7491
▁interior	-10.7498
0	-10.75
ap	-10.7501
▁divided	-10.7501
▁additionally	-10.7511
▁graduated	-10.753
▁rented	-10.7538
▁listed	-10.7546
▁finger	-10.7557
▁mostly	-10.7561
▁nurse	-10.7561
▁buyers	-10.7562
▁desserts	-10.7592
▁videos	-10.7608
▁applicants	-10.7613
▁16	-10.7618
▁renting	-10.7618
▁packing	-10.7634
▁star	-10.7691
▁finishing	-10.7726
▁spread	-10.773
▁13	-10.7741
▁offers	-10.7744
▁brief	-10.7754
▁plates	-10.7755
▁flow	-10.7755
▁automatic	-10.7758
▁advice	-10.7759
▁awkward	-10.7759
▁girl	-10.7759
▁injured	-10.7759
▁league	-10.7759
▁pregnant	-10.7759
▁resort	-10.7759
▁swap	-10.7759
▁verify	-10.7759
▁angry	-10.7759
▁community	-10.7759
▁river	-10.7759
▁batteries	-10.7759
▁honor	-10.7759
▁prize	-10.7759
▁lend	-10.7759
▁torn	-10.7759
▁suspended	-10.7762
▁everybody	-10.7762
▁certainly	-10.7768
▁blocked	-10.7773
▁nobody	-10.7775
▁returning	-10.7775
▁pad	-10.7776
▁payments	-10.7787
▁produced	-10.779
▁accepted	-10.78
▁bare	-10.7806
▁visitors	-10.781
▁washed	-10.781
▁compensate	-10.7821
▁replaced	-10.7821
▁stain	-10.7849
▁charges	-10.7852
▁dong	-10.7855
▁bite	-10.7856
▁term	-10.7869
▁tables	-10.7871
▁ms	-10.79
▁printing	-10.7915
▁complaint	-10.7932
bi	-10.7937
▁weigh	-10.7957
▁resting	-10.7963
ec	-10.7972
gu	-10.7982
▁paintings	-10.7985
▁colored	-10.8008
▁produce	-10.8037
▁create	-10.8044
▁scratch	-10.8047
▁regret	-10.8062
▁relative	-10.8062
▁ambulance	-10.8062
▁catalog	-10.8062
▁coach	-10.8062
▁commute	-10.8062
▁complex	-10.8062
▁embassy	-10.8062
▁jeans	-10.8062
▁ourselves	-10.8062
▁popcorn	-10.8062
▁temple	-10.8062
▁tennis	-10.8062
▁venue	-10.8062
▁voice	-10.8062
▁agent	-10.8062
▁six	-10.8062
▁fancy	-10.8062
▁pepper	-10.8062
▁briefly	-10.8067
▁lowest	-10.8067
▁server	-10.807
▁expired	-10.8072
▁seriously	-10.8074
▁anytime	-10.8079
▁toy	-10.8086
▁17	-10.8112
▁circumstances	-10.8114
▁contain	-10.8172
▁notebook	-10.8172
▁strap	-10.8174
▁executive	-10.8174
▁egg	-10.8177
000	-10.8181
▁secure	-10.8202
▁passengers	-10.8226
▁contains	-10.8257
▁mis	-10.8285
red	-10.8327
▁edit	-10.8344
▁loose	-10.8347
▁land	-10.8352
▁youtube	-10.8366
▁trim	-10.8374
▁wrist	-10.8374
▁click	-10.8374
▁energy	-10.8374
▁kiosk	-10.8374
▁supply	-10.8374
▁court	-10.8374
▁east	-10.8374
▁carried	-10.8374
▁shaking	-10.8374
▁waist	-10.8374
▁warranty	-10.8375
▁throat	-10.8375
▁underwear	-10.8375
▁june	-10.8377
▁notification	-10.8384
▁developed	-10.8397
▁announced	-10.8401
▁ribs	-10.8403
▁earrings	-10.8415
▁gu	-10.8441
▁announce	-10.846
▁soap	-10.8476
▁voucher	-10.8497
▁drug	-10.8498
▁ge	-10.8509
▁benefit	-10.8523
▁seasoning	-10.853
id	-10.8553
▁ratio	-10.8567
▁idols	-10.8615
▁21	-10.8616
▁numbers	-10.8625
▁sta	-10.8627
▁stretch	-10.8655
▁upgrade	-10.867
▁reissue	-10.8671
man	-10.8685
▁god	-10.8687
▁unexpected	-10.8692
▁dispos	-10.8693
▁america	-10.8694
▁brush	-10.8695
▁patch	-10.8695
▁bibimbap	-10.8697
▁bracelet	-10.8697
▁entry	-10.8697
▁illegal	-10.8697
▁incident	-10.8697
▁quote	-10.8697
▁upstairs	-10.8697
▁woman	-10.8697
▁calories	-10.8697
▁proud	-10.8697
▁compensation	-10.8697
▁bland	-10.8697
▁iron	-10.8698
▁hospitalization	-10.8699
▁deliveries	-10.87
▁lives	-10.87
▁king	-10.8701
▁billion	-10.8702
▁grilled	-10.8705
▁noon	-10.8708
▁40,000	-10.8714
▁gathering	-10.8735
▁pop	-10.875
▁pressed	-10.8751
▁drawing	-10.8751
▁shortly	-10.8755
▁designs	-10.8756
▁dyed	-10.8789
▁skills	-10.8792
▁asian	-10.8816
bu	-10.882
▁pillow	-10.8829
▁textbook	-10.883
▁beverage	-10.8832
▁sheet	-10.8832
▁entering	-10.8835
ical	-10.8836
▁recommendation	-10.8844
oke	-10.8883
▁recommendations	-10.8892
▁drugs	-10.89
▁drivers	-10.8902
▁mess	-10.8927
▁adding	-10.8936
▁pr	-10.8938
▁log	-10.8959
▁hurting	-10.8959
▁gra	-10.8973
▁reporting	-10.8976
body	-10.8985
▁roads	-10.8994
▁settle	-10.9006
▁affect	-10.9017
▁assign	-10.9017
▁fold	-10.9026
▁awesome	-10.903
▁bicycle	-10.903
▁communication	-10.903
▁elderly	-10.903
▁motorcycle	-10.903
▁perhaps	-10.903
▁scalp	-10.903
▁taiwan	-10.903
▁terribly	-10.903
▁themselves	-10.903
▁watermelon	-10.903
▁mood	-10.903
▁clinic	-10.903
▁aftersale	-10.903
▁golf	-10.903
▁fingerprint	-10.903
▁facial	-10.903
▁allowance	-10.903
▁lying	-10.903
▁rose	-10.9031
▁participating	-10.9031
▁digit	-10.9032
▁honestly	-10.9038
▁offline	-10.9041
▁conducted	-10.9041
▁turns	-10.9068
▁improved	-10.9074
▁correctly	-10.9074
▁worker	-10.9075
▁bu	-10.9087
▁dogs	-10.9092
▁heels	-10.9095
▁sum	-10.9097
▁seller	-10.9097
▁spending	-10.9103
cu	-10.9103
ny	-10.9105
▁removed	-10.9107
▁seasoned	-10.911
ip	-10.9124
▁upon	-10.9133
▁falling	-10.9143
ide	-10.9145
▁freely	-10.9146
▁referr	-10.9149
▁exceed	-10.9161
▁lived	-10.9163
▁agreed	-10.9169
▁80	-10.9173
▁cakes	-10.9174
▁spoon	-10.9176
▁bandage	-10.9177
▁leftover	-10.918
▁rese	-10.9252
▁patients	-10.9256
▁happening	-10.9257
▁offering	-10.9265
▁inquire	-10.9306
▁exchang	-10.9332
▁relieve	-10.9344
▁onion	-10.9345
▁groups	-10.9346
▁volunteer	-10.9347
▁exclud	-10.9349
▁invite	-10.9352
▁count	-10.9356
▁recover	-10.9357
op	-10.9361
▁dance	-10.9366
▁peach	-10.9373
▁arrives	-10.9374
▁audience	-10.9375
▁blouse	-10.9375
▁bridge	-10.9375
▁choosing	-10.9375
▁conversation	-10.9375
▁evidence	-10.9375
▁experiment	-10.9375
▁external	-10.9375
▁graduating	-10.9375
▁impact	-10.9375
▁link	-10.9375
▁purple	-10.9375
▁reschedule	-10.9375
▁rude	-10.9375
▁superior	-10.9375
▁sky	-10.9375
▁slippers	-10.9375
▁proof	-10.9375
▁occurred	-10.9375
▁paris	-10.9375
▁labor	-10.9375
▁excel	-10.9375
▁assist	-10.9376
▁nuts	-10.9376
▁installation	-10.9377
▁twin	-10.9378
▁fortunately	-10.9379
▁difficulties	-10.9385
▁perfectly	-10.9386
▁naturally	-10.9388
▁mass	-10.9393
▁prove	-10.9396
▁decreased	-10.9411
▁organiz	-10.942
▁cookies	-10.9422
▁painful	-10.9428
▁promoted	-10.9435
▁ah	-10.9442
▁mu	-10.9476
▁expecting	-10.9476
que	-10.9484
▁custom	-10.9492
▁speaking	-10.9507
▁regulation	-10.9536
▁sometime	-10.9552
ese	-10.9554
ize	-10.9574
▁models	-10.958
▁filling	-10.9588
▁0	-10.9591
▁differences	-10.9622
▁cart	-10.9662
▁respond	-10.9704
▁reflect	-10.9719
▁windows	-10.9722
▁host	-10.9725
▁altogether	-10.9732
▁ballpoint	-10.9732
▁basketball	-10.9732
▁cooperation	-10.9732
▁downstairs	-10.9732
▁flexible	-10.9732
▁honey	-10.9732
▁interval	-10.9732
▁knife	-10.9732
▁quotation	-10.9732
▁smartphone	-10.9732
▁upper	-10.9732
▁heshe	-10.9732
▁drank	-10.9732
▁replacement	-10.9733
▁wage	-10.9733
▁squid	-10.9733
▁dear	-10.9735
▁rear	-10.9736
▁bts	-10.9745
▁reasonable	-10.9746
▁characters	-10.9757
▁shorter	-10.9781
▁accounts	-10.9788
▁businesses	-10.9791
▁meant	-10.9792
▁reduced	-10.9819
▁aside	-10.9845
▁ears	-10.9853
▁ho	-10.9869
▁knee	-10.9903
▁differ	-10.9904
▁opens	-10.9905
▁passenger	-10.9905
▁curl	-10.991
▁errors	-10.9925
▁differs	-10.9927
▁processing	-10.9934
▁bear	-10.9987
▁joint	-10.9992
▁names	-11.0016
sized	-11.0021
▁paste	-11.0028
coming	-11.003
▁fight	-11.0075
▁cough	-11.0075
▁surprise	-11.0077
▁lock	-11.0077
over	-11.0081
▁experiences	-11.0095
▁fortunate	-11.0098
▁chew	-11.01
▁accommodate	-11.0102
▁bandaid	-11.0102
▁bouquet	-11.0102
▁crazy	-11.0102
▁intersection	-11.0102
▁negotiate	-11.0102
▁reception	-11.0102
▁reply	-11.0102
▁smart	-11.0102
▁stiff	-11.0102
▁strawberry	-11.0102
▁suitcase	-11.0102
▁unusual	-11.0102
▁hanbok	-11.0102
▁lamb	-11.0102
▁contest	-11.0102
▁chart	-11.0102
▁feedback	-11.0102
▁thailand	-11.0102
▁luckily	-11.0102
▁flour	-11.0102
▁series	-11.0102
▁memory	-11.0103
▁overlap	-11.0104
▁lc	-11.0105
▁germany	-11.0105
▁invest	-11.0107
▁ability	-11.0107
▁personality	-11.0107
▁refreshing	-11.0107
▁vote	-11.0108
▁path	-11.0109
▁electronics	-11.0112
▁annoying	-11.0113
cy	-11.0115
▁shoulders	-11.0138
▁hardest	-11.014
▁updated	-11.016
▁saved	-11.0168
▁canceling	-11.0206
▁non	-11.0207
▁blankets	-11.0212
ook	-11.0214
▁painkillers	-11.0228
▁ju	-11.0255
▁functions	-11.0277
▁applicant	-11.0289
▁lip	-11.0291
▁machines	-11.0364
▁audit	-11.0367
▁drops	-11.0373
▁du	-11.0377
▁slip	-11.0379
▁cultur	-11.04
▁souvenirs	-11.0436
▁conduct	-11.0446
▁purchases	-11.0452
▁jump	-11.0455
house	-11.0481
▁rough	-11.0482
▁accurate	-11.0482
▁toys	-11.0483
▁valid	-11.0486
▁transit	-11.0486
▁protect	-11.0486
▁advantage	-11.0487
▁born	-11.0487
▁cabbage	-11.0487
▁cooperate	-11.0487
▁everywhere	-11.0487
▁exciting	-11.0487
▁greasy	-11.0487
▁manpower	-11.0487
▁narrow	-11.0487
▁pamphlet	-11.0487
▁preference	-11.0487
▁premium	-11.0487
▁scholarship	-11.0487
▁shelf	-11.0487
▁snow	-11.0487
▁southeast	-11.0487
▁studio	-11.0487
▁succeed	-11.0487
▁sunscreen	-11.0487
▁workshop	-11.0487
▁jamsil	-11.0487
▁ease	-11.0487
▁flash	-11.0487
▁translation	-11.0487
▁saving	-11.0487
▁wonderful	-11.0488
▁discussion	-11.0489
▁branches	-11.0491
▁wipe	-11.0492
▁restocked	-11.0494
▁80,000	-11.0498
▁cabin	-11.0498
▁brands	-11.0515
▁sleepy	-11.0515
▁landing	-11.0521
▁revised	-11.0529
▁characteristics	-11.053
▁suite	-11.0538
▁usb	-11.0551
▁ro	-11.0579
▁needle	-11.0592
▁lotte	-11.0593
▁records	-11.0609
▁screening	-11.0646
▁ra	-11.0661
▁sites	-11.0672
▁supplements	-11.0673
▁vegetable	-11.0691
ite	-11.0691
▁beverages	-11.0722
▁novel	-11.0736
of	-11.0737
▁defects	-11.0778
▁surely	-11.0799
▁files	-11.0807
ia	-11.0809
▁en	-11.0814
city	-11.0819
ral	-11.0833
▁sessions	-11.0859
made	-11.088
type	-11.0881
month	-11.0881
▁exclusive	-11.0882
free	-11.0882
ml	-11.0884
▁dead	-11.0887
▁guard	-11.0887
▁calendar	-11.0887
▁currencies	-11.0887
▁disease	-11.0887
▁earthquake	-11.0887
▁honeymoon	-11.0887
▁mackerel	-11.0887
▁maintenance	-11.0887
▁march	-11.0887
▁nonsmok	-11.0887
▁participants	-11.0887
▁possibility	-11.0887
▁practicing	-11.0887
▁promoting	-11.0887
▁revision	-11.0887
▁sightseeing	-11.0887
▁underground	-11.0887
▁mild	-11.0887
▁central	-11.0887
▁etc	-11.0887
▁network	-11.0887
▁pattern	-11.0887
▁matern	-11.0887
▁resignation	-11.0887
▁skincare	-11.0888
▁119	-11.0889
▁mina	-11.089
▁connection	-11.0891
▁recovery	-11.0892
▁thankfully	-11.0893
▁toner	-11.0895
▁popularity	-11.0899
▁1000	-11.0902
▁flying	-11.0904
▁useful	-11.0906
▁promised	-11.0912
▁stressed	-11.0912
▁affairs	-11.0916
▁previously	-11.0917
▁accordingly	-11.0922
▁clubs	-11.0924
▁relations	-11.0932
▁lacking	-11.0946
ization	-11.0973
▁writer	-11.0975
▁friendly	-11.0976
▁feed	-11.0979
▁stations	-11.098
▁explained	-11.098
▁peanuts	-11.0982
▁reviewed	-11.0984
▁finding	-11.0991
▁lessons	-11.1007
▁notes	-11.1022
▁steam	-11.1027
▁schedules	-11.1039
▁filed	-11.1046
ung	-11.1058
▁forms	-11.1061
▁headquarters	-11.1065
▁del	-11.1066
led	-11.1072
▁designed	-11.1089
▁occur	-11.1103
▁supplement	-11.1105
▁kilo	-11.1105
▁spoons	-11.1123
▁weekday	-11.1133
▁figures	-11.1172
▁congratulate	-11.1196
based	-11.1224
▁hy	-11.1257
ier	-11.1261
▁channels	-11.1266
▁realize	-11.1278
▁n	-11.1289
▁fail	-11.1291
▁units	-11.1293
box	-11.1296
▁obvious	-11.1299
▁strict	-11.13
▁liquids	-11.13
▁freeze	-11.1301
▁comfort	-11.1302
▁analysis	-11.1304
▁blind	-11.1304
▁challenge	-11.1304
▁dancing	-11.1304
▁duck	-11.1304
▁earliest	-11.1304
▁exhausted	-11.1304
▁firm	-11.1304
▁lodging	-11.1304
▁moisturizing	-11.1304
▁silver	-11.1304
▁soybean	-11.1304
▁studies	-11.1304
▁built	-11.1304
▁chili	-11.1304
▁charging	-11.1304
▁tokyo	-11.1304
▁debt	-11.1304
▁incurred	-11.1304
▁caffeine	-11.1304
▁env	-11.1304
▁minor	-11.1305
▁peaches	-11.1305
▁timetable	-11.1306
▁highway	-11.1308
▁movement	-11.1308
▁cleansing	-11.131
▁disappointing	-11.1311
▁longterm	-11.1311
▁wire	-11.1312
▁taxes	-11.1312
▁boiled	-11.1315
▁stuffy	-11.1317
▁importer	-11.1318
▁everyday	-11.1318
▁signal	-11.1343
▁mushrooms	-11.1368
▁income	-11.1376
and	-11.1402
▁bowls	-11.1407
▁played	-11.1428
▁dumplings	-11.1428
▁h	-11.1435
▁investigate	-11.145
▁hamburgers	-11.1454
▁trips	-11.1457
▁150	-11.1466
pped	-11.1483
▁differently	-11.1515
▁supporting	-11.1522
▁rates	-11.153
▁apple	-11.1544
ern	-11.1552
▁complaints	-11.1585
▁competitors	-11.1603
nc	-11.1641
one	-11.167
off	-11.1705
▁consult	-11.171
▁delete	-11.1712
▁advertise	-11.1712
▁feature	-11.1719
▁die	-11.1724
▁singers	-11.1727
▁possibl	-11.1732
▁proper	-11.1733
▁bump	-11.1735
▁sharp	-11.1737
▁compliment	-11.1738
▁nutrition	-11.1738
▁allergy	-11.1738
▁artificial	-11.1738
▁combination	-11.1738
▁detergent	-11.1738
▁detour	-11.1738
▁dizzy	-11.1738
▁episode	-11.1738
▁fashion	-11.1738
▁fountain	-11.1738
▁frame	-11.1738
▁fridge	-11.1738
▁mileage	-11.1738
▁shift	-11.1738
▁slice	-11.1738
▁somewhat	-11.1738
▁starbucks	-11.1738
▁sunglasses	-11.1738
▁suspension	-11.1738
▁television	-11.1738
▁tuition	-11.1738
▁village	-11.1738
▁costume	-11.1738
▁shake	-11.1738
▁western	-11.1738
▁dying	-11.1738
▁aisle	-11.1738
▁plot	-11.1738
▁mecha	-11.1738
▁braise	-11.1739
▁peak	-11.1739
▁sofa	-11.1739
▁truck	-11.1739
▁itchy	-11.1739
▁aerobic	-11.1739
▁tree	-11.1739
▁loan	-11.1739
▁clearance	-11.1739
▁scale	-11.1739
▁grand	-11.174
▁fift	-11.174
▁bitter	-11.174
▁himher	-11.174
▁otherwise	-11.1741
▁gray	-11.1744
▁carryon	-11.1745
▁500,000	-11.1747
▁kill	-11.1747
na	-11.1747
▁pity	-11.175
ction	-11.1752
nical	-11.1756
▁rare	-11.1757
▁seniors	-11.1771
▁departed	-11.1778
▁mistakes	-11.1798
▁ja	-11.1798
▁operated	-11.1798
▁solved	-11.182
▁reader	-11.1827
▁cha	-11.1828
▁career	-11.1838
▁tone	-11.1882
▁cafes	-11.1882
▁vitamins	-11.1887
▁meds	-11.1897
▁sat	-11.1907
ber	-11.1926
▁250	-11.1959
▁bend	-11.1965
ized	-11.1988
▁magazine	-11.1992
▁headquarter	-11.1994
▁suggestion	-11.1997
▁wa	-11.2
▁sheets	-11.2005
mer	-11.2021
▁cl	-11.2024
ger	-11.2038
▁languages	-11.205
▁aid	-11.2056
▁complain	-11.2059
▁90	-11.2068
▁markets	-11.2091
▁ste	-11.2091
▁tips	-11.2105
▁remain	-11.2166
work	-11.2169
ga	-11.2171
▁engineer	-11.2171
▁leak	-11.2179
▁hotels	-11.218
▁neat	-11.2188
▁yea	-11.2189
▁photograph	-11.219
▁exhibit	-11.2192
▁multi	-11.2193
▁approach	-11.2193
▁rock	-11.2193
▁swallow	-11.2193
yearold	-11.2193
▁beauty	-11.2193
▁buffet	-11.2193
▁cardigan	-11.2193
▁cctv	-11.2193
▁ceiling	-11.2193
▁christmas	-11.2193
▁church	-11.2193
▁circle	-11.2193
▁criteria	-11.2193
▁crosswalk	-11.2193
▁discomfort	-11.2193
▁failure	-11.2193
▁himself	-11.2193
▁mango	-11.2193
▁playground	-11.2193
▁powerpoint	-11.2193
▁technical	-11.2193
▁toothpaste	-11.2193
▁treadmill	-11.2193
▁seven	-11.2193
▁alarm	-11.2193
▁filter	-11.2193
▁mart	-11.2193
▁fax	-11.2193
▁absent	-11.2193
▁scenery	-11.2194
▁autumn	-11.2194
▁bedding	-11.2194
▁plant	-11.2194
▁hole	-11.2194
▁organization	-11.2194
▁vary	-11.2195
▁hassle	-11.2195
▁documentary	-11.2195
▁consideration	-11.2195
▁involved	-11.2196
▁dating	-11.2196
▁smoothly	-11.2196
▁gel	-11.2197
▁north	-11.2198
▁assistance	-11.2199
▁grown	-11.22
▁desired	-11.2201
▁crying	-11.2201
▁specialize	-11.2202
▁swim	-11.2203
▁150,000	-11.2207
▁responses	-11.2209
▁stronger	-11.2217
▁cooler	-11.2218
▁uploaded	-11.2219
▁generally	-11.2224
▁coughing	-11.2227
▁relieved	-11.2228
▁discussed	-11.2234
▁recorded	-11.2234
▁considered	-11.2238
▁picky	-11.2255
▁teaching	-11.2263
ose	-11.2276
▁managed	-11.2276
▁helps	-11.228
▁straighten	-11.229
▁exams	-11.2301
bo	-11.2302
▁animals	-11.2311
▁handled	-11.2317
uk	-11.2319
▁begins	-11.233
▁players	-11.2336
▁y	-11.2347
▁assemble	-11.2352
▁lips	-11.2434
ial	-11.2448
▁201	-11.2464
▁album	-11.2467
▁degree	-11.247
▁artwork	-11.247
▁sport	-11.2473
ism	-11.25
▁35	-11.2526
▁economic	-11.2539
▁si	-11.2547
▁exception	-11.2569
▁pet	-11.2571
▁600	-11.2611
ten	-11.2638
▁introduc	-11.264
▁caus	-11.2645
▁promise	-11.2648
▁scar	-11.2651
▁disappear	-11.2656
▁concern	-11.2656
▁melt	-11.2662
ability	-11.2663
▁german	-11.2665
▁mid	-11.2665
▁origin	-11.2666
▁attract	-11.2668
▁sponsor	-11.2669
▁accompany	-11.2669
▁activity	-11.2669
▁april	-11.2669
▁capital	-11.2669
▁cereal	-11.2669
▁december	-11.2669
▁essay	-11.2669
▁ferry	-11.2669
▁grandmother	-11.2669
▁ignore	-11.2669
▁itinerary	-11.2669
▁jealous	-11.2669
▁modify	-11.2669
▁nutrient	-11.2669
▁ordinary	-11.2669
▁respect	-11.2669
▁ridiculous	-11.2669
▁sausage	-11.2669
▁spill	-11.2669
▁supermarket	-11.2669
▁supplier	-11.2669
▁thirsty	-11.2669
▁unlimited	-11.2669
▁vessel	-11.2669
▁xray	-11.2669
▁introduction	-11.2669
▁vegan	-11.2669
▁bullet	-11.2669
▁genre	-11.2669
▁recall	-11.2669
▁gown	-11.2669
severance	-11.2669
▁vanilla	-11.2669
▁font	-11.2669
▁slippery	-11.2669
▁civi	-11.2669
▁desp	-11.2669
▁ripped	-11.2669
▁factories	-11.2669
▁invitation	-11.2669
fuel	-11.267
▁belongings	-11.267
▁priority	-11.267
▁crab	-11.267
▁scarf	-11.267
▁favorable	-11.2672
▁sickness	-11.2672
▁boy	-11.2672
▁drip	-11.2673
▁dorm	-11.2674
▁12,000	-11.2676
▁toast	-11.2677
▁scissors	-11.2684
▁canada	-11.2689
▁singing	-11.2692
▁smallest	-11.2694
▁cutting	-11.2694
▁subtitles	-11.2704
▁euros	-11.2704
▁lo	-11.2704
▁arranged	-11.2729
ened	-11.2731
▁sleeves	-11.2733
▁filming	-11.2752
▁operations	-11.2755
▁departments	-11.2781
▁chat	-11.2789
▁provides	-11.2795
▁refuse	-11.2798
▁sooner	-11.2804
▁conditioning	-11.2807
▁repairs	-11.2821
▁tshirts	-11.2834
▁theme	-11.2857
▁28	-11.2862
▁posting	-11.2871
▁pricey	-11.2881
50	-11.2881
▁interviews	-11.2881
11	-11.2887
▁medicines	-11.2942
ries	-11.2947
▁digest	-11.2967
▁uniform	-11.2969
▁cigarette	-11.2973
▁covers	-11.299
come	-11.2995
▁230	-11.3009
▁scenes	-11.3014
▁towards	-11.3024
▁containers	-11.3025
ine	-11.3028
▁ski	-11.3033
▁reports	-11.305
▁400	-11.306
▁pencils	-11.3075
▁advertisements	-11.3124
▁regard	-11.3141
▁plug	-11.3142
▁san	-11.3142
▁imagine	-11.3143
▁creat	-11.3143
▁approve	-11.3143
▁performances	-11.3144
▁breathe	-11.3148
▁publish	-11.3148
▁inspect	-11.3154
▁suffer	-11.3156
▁worrying	-11.3156
▁talent	-11.3156
▁grill	-11.3156
▁insert	-11.3157
▁nurs	-11.3161
style	-11.3162
▁breath	-11.3162
jang	-11.3165
▁toothbrush	-11.3168
▁absence	-11.3169
▁category	-11.3169
▁companion	-11.3169
▁discontinued	-11.3169
▁exemption	-11.3169
▁gallery	-11.3169
▁ginseng	-11.3169
▁identity	-11.3169
▁impression	-11.3169
▁karaoke	-11.3169
▁lemon	-11.3169
▁managing	-11.3169
▁pineapple	-11.3169
▁pouch	-11.3169
▁preorder	-11.3169
▁refrain	-11.3169
▁science	-11.3169
▁sibling	-11.3169
▁stomachache	-11.3169
▁teeth	-11.3169
▁trading	-11.3169
▁worries	-11.3169
▁pig	-11.3169
▁acquaintance	-11.3169
▁scandal	-11.3169
▁lady	-11.3169
▁grape	-11.3169
▁calculation	-11.3169
▁fluid	-11.3169
▁distribution	-11.3169
▁tofu	-11.3169
▁inner	-11.317
▁settlement	-11.317
▁absolutely	-11.317
▁attendant	-11.3171
▁paperwork	-11.3171
▁245	-11.3171
▁portable	-11.3171
▁handmade	-11.3171
▁approximately	-11.3171
▁chest	-11.3172
▁handling	-11.3173
▁chewy	-11.3175
▁tube	-11.3176
▁examine	-11.3176
▁matches	-11.3177
▁operates	-11.3178
▁growth	-11.3179
▁pan	-11.3179
▁workbook	-11.3181
▁warning	-11.3181
▁8,000	-11.3183
▁resolved	-11.3185
▁faulty	-11.3185
▁darker	-11.3188
▁passes	-11.3188
▁exceeded	-11.3189
▁plu	-11.3198
▁erase	-11.3202
▁indicated	-11.3211
▁invited	-11.3214
▁tear	-11.3215
00	-11.3217
▁shooting	-11.3218
▁recruits	-11.3226
▁collected	-11.3232
▁deposited	-11.3236
▁shrimps	-11.3239
▁yu	-11.324
▁growing	-11.3249
aking	-11.3259
▁majored	-11.3259
▁fund	-11.3263
▁provid	-11.3266
gi	-11.3276
▁comp	-11.328
▁pairs	-11.3301
▁flu	-11.3326
▁knowing	-11.334
▁shared	-11.3355
▁j	-11.3356
▁accidents	-11.3357
▁stickers	-11.3364
▁funds	-11.337
▁degrees	-11.3383
▁artworks	-11.3383
▁pe	-11.3388
▁suggestions	-11.3394
▁kilos	-11.3415
▁airlines	-11.3416
ight	-11.3416
▁packaged	-11.3428
▁knees	-11.3447
▁rec	-11.3454
▁ingredient	-11.35
▁yo	-11.35
▁sticker	-11.3506
▁midterms	-11.3532
▁packages	-11.3544
▁matters	-11.3572
▁55	-11.3588
▁ga	-11.3615
▁boil	-11.3654
▁36	-11.3659
30	-11.3661
▁flood	-11.3682
slept	-11.3687
check	-11.3689
▁testing	-11.3689
paid	-11.369
rank	-11.369
▁luck	-11.3691
▁slight	-11.3691
colored	-11.3694
▁rise	-11.3694
▁bunch	-11.3694
aught	-11.3695
▁occasion	-11.3695
▁disinfect	-11.3695
▁neighbor	-11.3695
▁accessories	-11.3695
▁bacon	-11.3695
▁bathtub	-11.3695
▁blade	-11.3695
▁bluetooth	-11.3695
▁coriander	-11.3695
▁cruise	-11.3695
▁dairy	-11.3695
▁forecast	-11.3695
▁garbage	-11.3695
▁infection	-11.3695
▁junior	-11.3695
▁lawsuit	-11.3695
▁mascara	-11.3695
▁messenger	-11.3695
▁modern	-11.3695
▁octopus	-11.3695
▁phrase	-11.3695
▁radio	-11.3695
▁randomly	-11.3695
▁sexual	-11.3695
▁singapore	-11.3695
▁somehow	-11.3695
▁spanish	-11.3695
▁sufficient	-11.3695
▁troublesome	-11.3695
▁virus	-11.3695
▁ktx	-11.3695
▁oven	-11.3695
▁pancake	-11.3695
▁quiz	-11.3696
▁acne	-11.3696
▁string	-11.3696
▁auto	-11.3696
▁cutlet	-11.3696
▁sub	-11.3696
▁decent	-11.3696
▁boots	-11.3697
▁sharing	-11.3697
▁flat	-11.3697
ssuing	-11.3698
▁memo	-11.3698
▁freezer	-11.3698
▁logo	-11.3699
,500	-11.3702
term	-11.3702
ound	-11.3703
▁tape	-11.3703
▁notified	-11.3709
▁correction	-11.3709
▁talented	-11.3709
▁60,000	-11.3712
▁reflected	-11.3715
▁seconds	-11.3717
▁firstly	-11.3718
cent	-11.3724
▁kit	-11.3724
▁gathered	-11.3726
▁advertised	-11.3727
▁pin	-11.3728
▁gi	-11.3731
▁pc	-11.3745
▁suggested	-11.375
▁adjusted	-11.3753
▁tracking	-11.3754
▁lid	-11.3755
▁calculated	-11.3758
ail	-11.3759
▁fo	-11.376
▁closely	-11.3772
▁touched	-11.3774
▁borrowed	-11.3776
▁trending	-11.3777
▁holder	-11.3808
▁postponed	-11.381
▁leading	-11.3813
▁spots	-11.3824
▁ages	-11.3826
▁supported	-11.3829
▁comments	-11.3844
▁summarize	-11.3852
▁tissues	-11.3866
▁trainer	-11.3875
▁spices	-11.3888
▁answering	-11.3888
▁uniforms	-11.3911
12	-11.3976
▁rings	-11.4002
▁jobs	-11.4009
6	-11.401
ily	-11.4024
▁bug	-11.4032
▁stored	-11.404
▁executives	-11.4045
▁spice	-11.4052
▁bone	-11.4054
oc	-11.4102
▁ye	-11.4111
ever	-11.4112
▁mat	-11.4116
▁emphasize	-11.4127
▁finals	-11.4142
▁presents	-11.4174
▁situations	-11.4198
▁guarantee	-11.4225
book	-11.4229
▁adapt	-11.4232
▁renew	-11.4235
▁q	-11.4244
water	-11.4245
▁competitive	-11.425
▁belong	-11.425
▁allergies	-11.4251
▁annex	-11.4251
▁barcode	-11.4251
▁breast	-11.4251
▁clause	-11.4251
▁deciding	-11.4251
▁diarrhea	-11.4251
▁disturb	-11.4251
▁efficiency	-11.4251
▁eyeliner	-11.4251
▁fantastic	-11.4251
▁gettogether	-11.4251
▁global	-11.4251
▁google	-11.4251
▁household	-11.4251
▁interpretation	-11.4251
▁moisture	-11.4251
▁nonsense	-11.4251
▁polish	-11.4251
▁prettier	-11.4251
▁recognition	-11.4251
▁seatbelt	-11.4251
▁switzerland	-11.4251
▁tumbler	-11.4251
▁tuna	-11.4251
▁zipper	-11.4251
▁robot	-11.4251
▁catering	-11.4251
▁title	-11.4251
▁sector	-11.4251
▁forehead	-11.4251
▁celebration	-11.4251
▁dislike	-11.4251
▁roof	-11.4251
▁france	-11.4251
▁rich	-11.4251
▁marin	-11.4251
▁organic	-11.4251
▁cheat	-11.4251
▁equi	-11.4252
▁secretary	-11.4252
▁assembly	-11.4252
▁vat	-11.4252
▁jejudo	-11.4252
▁topping	-11.4254
▁specification	-11.4255
▁onepiece	-11.4256
▁ink	-11.4258
▁bri	-11.4258
▁bath	-11.4259
▁stopping	-11.4259
▁pages	-11.426
▁metal	-11.4263
▁startup	-11.4265
▁sting	-11.4267
▁attitude	-11.4269
▁reducer	-11.427
▁evacuate	-11.4276
▁dip	-11.428
▁led	-11.4291
▁burning	-11.4319
▁vehicles	-11.4319
▁farm	-11.4331
▁sweating	-11.4339
▁fr	-11.4352
▁components	-11.4362
▁cucumbers	-11.4362
▁eyebrows	-11.4362
ja	-11.4377
▁phones	-11.4379
▁difficulty	-11.439
▁signs	-11.4407
▁colleagues	-11.4408
▁touching	-11.4425
▁bo	-11.4456
▁purposes	-11.4481
▁digesti	-11.4482
▁nu	-11.4519
▁explaining	-11.4525
▁occurs	-11.4526
▁trains	-11.4541
▁leftovers	-11.4586
▁waiter	-11.4606
▁vouchers	-11.461
head	-11.4611
▁ear	-11.4622
▁serving	-11.4637
▁curtain	-11.4638
▁vitamin	-11.464
▁painkiller	-11.4641
▁applications	-11.4654
▁predict	-11.4675
▁240	-11.4737
▁installments	-11.4754
▁prescribe	-11.4813
▁27	-11.4815
▁tru	-11.4825
▁americanos	-11.4827
▁analyze	-11.4831
floor	-11.4833
▁afford	-11.4838
▁prior	-11.4839
▁cru	-11.4839
▁shut	-11.4839
▁behalf	-11.4839
▁beige	-11.4839
▁beijing	-11.4839
▁clerk	-11.4839
▁cocktail	-11.4839
▁collision	-11.4839
▁craving	-11.4839
▁eligible	-11.4839
▁essential	-11.4839
▁garden	-11.4839
▁genuine	-11.4839
▁instagram	-11.4839
▁interpreter	-11.4839
▁ladies	-11.4839
▁limousine	-11.4839
▁liquor	-11.4839
▁modification	-11.4839
▁nature	-11.4839
▁porridge	-11.4839
▁pudding	-11.4839
▁recharge	-11.4839
▁refrigerated	-11.4839
▁rotten	-11.4839
▁savory	-11.4839
▁structure	-11.4839
▁substance	-11.4839
▁thirty	-11.4839
▁tonkatsu	-11.4839
▁tteokbokki	-11.4839
▁vaccination	-11.4839
▁webtoon	-11.4839
▁appeal	-11.4839
▁beginner	-11.4839
▁duties	-11.4839
▁patent	-11.4839
▁chips	-11.4839
▁shinchon	-11.4839
▁acid	-11.4839
▁description	-11.4839
▁tasting	-11.4839
▁lump	-11.4839
▁nowhere	-11.4839
▁pub	-11.4839
▁describe	-11.4839
▁rubber	-11.4839
▁sunlight	-11.4839
▁harmful	-11.4839
▁potential	-11.4839
▁nope	-11.4839
▁carrot	-11.484
▁understood	-11.484
▁object	-11.484
▁label	-11.484
▁vendor	-11.484
▁typo	-11.484
▁doublecheck	-11.484
▁moist	-11.484
▁clam	-11.484
▁unbelievable	-11.484
▁recruitment	-11.484
▁greeting	-11.484
▁1.5	-11.484
▁navy	-11.484
▁permission	-11.4841
▁sincerely	-11.4841
▁adjustment	-11.4841
▁hide	-11.4841
▁constantly	-11.4841
▁repairman	-11.4841
▁630	-11.4842
▁coverage	-11.4842
▁continuously	-11.4842
▁fulltime	-11.4842
▁cashier	-11.4843
▁yen	-11.4843
▁hana	-11.4844
▁pose	-11.4844
▁specialty	-11.4844
▁collection	-11.4845
▁folder	-11.4846
▁thankful	-11.4849
▁buildings	-11.4853
▁rainy	-11.4856
▁cord	-11.4857
▁camping	-11.4859
▁spain	-11.4867
▁declare	-11.4868
ned	-11.4876
▁consulting	-11.4877
▁realized	-11.4878
▁statistics	-11.4882
▁artifacts	-11.4882
▁bothered	-11.4885
▁conveniently	-11.4886
▁reached	-11.4888
▁settled	-11.4893
▁created	-11.4907
▁grains	-11.4907
▁soju	-11.492
ari	-11.4925
▁launching	-11.4934
50,000	-11.4946
▁tooth	-11.495
▁antibiotics	-11.4957
▁stands	-11.503
▁greatly	-11.5037
▁mus	-11.5069
▁headed	-11.5074
▁procedures	-11.5085
▁sing	-11.5091
▁viewing	-11.5095
▁van	-11.5096
▁magazines	-11.5107
▁burnt	-11.5121
▁cm	-11.5133
yo	-11.5158
▁delivering	-11.516
▁utilize	-11.5177
▁textbooks	-11.5208
▁mad	-11.5228
▁mon	-11.5234
▁tissue	-11.5264
▁earphone	-11.5267
▁fork	-11.5286
▁ads	-11.5311
▁efforts	-11.5323
▁produc	-11.5327
▁interns	-11.5348
eat	-11.5349
▁mi	-11.5391
ian	-11.5393
km	-11.5399
▁resign	-11.5435
▁analyz	-11.5435
▁translate	-11.5439
▁achieve	-11.544
▁fly	-11.5446
▁crash	-11.545
▁crack	-11.5451
▁shin	-11.5456
class	-11.5458
well	-11.5459
year	-11.5462
▁cra	-11.5463
ific	-11.5464
▁consist	-11.5464
▁thai	-11.5464
▁repeat	-11.5464
▁sprain	-11.5464
▁aircraft	-11.5464
▁auditorium	-11.5464
▁cloud	-11.5464
▁corridor	-11.5464
▁disagree	-11.5464
▁england	-11.5464
▁gradually	-11.5464
▁inexpensive	-11.5464
▁inflammation	-11.5464
▁judge	-11.5464
▁knock	-11.5464
▁laugh	-11.5464
▁lonely	-11.5464
▁marriage	-11.5464
▁memorable	-11.5464
▁meticulous	-11.5464
▁necessarily	-11.5464
▁observatory	-11.5464
▁practical	-11.5464
▁recipe	-11.5464
▁remind	-11.5464
▁retrieve	-11.5464
▁rival	-11.5464
▁ruin	-11.5464
▁satisfaction	-11.5464
▁script	-11.5464
▁smile	-11.5464
▁sprite	-11.5464
▁surcharge	-11.5464
▁tattoo	-11.5464
▁temporarily	-11.5464
▁terrace	-11.5464
▁vacancies	-11.5464
▁burst	-11.5464
▁football	-11.5464
▁initial	-11.5464
▁detect	-11.5464
▁sunset	-11.5464
▁udon	-11.5464
▁consent	-11.5464
▁shaved	-11.5464
▁investors	-11.5464
▁embarrassed	-11.5464
▁begun	-11.5464
▁alternative	-11.5464
▁bench	-11.5464
▁joke	-11.5464
▁partnership	-11.5464
▁rash	-11.5465
▁mandatory	-11.5465
▁attractive	-11.5465
▁lung	-11.5465
▁chairman	-11.5466
▁bob	-11.5466
▁efficient	-11.5466
▁realtime	-11.5466
▁pension	-11.5467
▁730	-11.5467
▁brew	-11.5467
▁renewal	-11.5468
▁reality	-11.5469
▁rub	-11.547
▁overnight	-11.547
▁signboard	-11.547
▁meantime	-11.5472
▁dispatched	-11.5475
▁parties	-11.5477
▁cracked	-11.5478
▁sticky	-11.5479
▁brighter	-11.5486
▁accumulated	-11.5487
▁quietly	-11.5489
▁pizzas	-11.549
▁subjects	-11.5504
▁extended	-11.5505
▁bin	-11.5506
▁watches	-11.5507
▁excluded	-11.551
▁formula	-11.5516
▁upgraded	-11.5516
▁stretching	-11.5519
▁abs	-11.5521
▁squats	-11.555
▁ending	-11.5557
▁infants	-11.5563
▁becoming	-11.5572
▁olympics	-11.5576
▁sns	-11.559
▁ham	-11.5592
▁hired	-11.5596
▁800	-11.56
▁jo	-11.5619
▁hadn	-11.5619
▁congratulat	-11.5628
ship	-11.5658
▁appreciated	-11.5673
▁drying	-11.5674
▁stocked	-11.5711
▁noises	-11.5721
▁pets	-11.5735
▁heal	-11.5747
▁apples	-11.5763
▁buttons	-11.5772
▁shots	-11.5781
▁ke	-11.5832
▁skipp	-11.584
▁exceeds	-11.5845
▁separated	-11.5849
▁pillows	-11.5858
ious	-11.586
▁fa	-11.5865
▁stars	-11.5908
▁boxing	-11.5912
▁nurses	-11.5914
▁manner	-11.5929
▁dumpling	-11.5932
▁symptom	-11.5934
▁lesson	-11.5953
▁methods	-11.5969
▁fac	-11.5971
▁skill	-11.5976
▁player	-11.5986
▁certificates	-11.5991
▁rolls	-11.6021
▁articles	-11.6022
90	-11.6037
▁classic	-11.6054
▁indicat	-11.6086
▁scores	-11.6092
▁peel	-11.6103
▁locate	-11.6105
▁deduct	-11.6116
▁restock	-11.6118
▁solutions	-11.6119
wear	-11.6122
patient	-11.6123
q	-11.6123
flavored	-11.6125
▁withdraw	-11.6125
▁highlight	-11.6126
▁smooth	-11.6126
▁fluent	-11.6126
hipped	-11.6129
▁success	-11.6131
▁jack	-11.6131
▁master	-11.6131
▁misunderstand	-11.6131
▁convention	-11.6131
▁advise	-11.6131
▁appetite	-11.6131
▁athlete	-11.6131
▁audio	-11.6131
▁automated	-11.6131
▁bargain	-11.6131
▁buckwheat	-11.6131
▁cambodia	-11.6131
▁charcoal	-11.6131
▁composition	-11.6131
▁corporation	-11.6131
▁cuisine	-11.6131
▁daejeon	-11.6131
▁edge	-11.6131
▁engrave	-11.6131
▁enteritis	-11.6131
▁enterprise	-11.6131
▁families	-11.6131
▁franchise	-11.6131
▁gimbap	-11.6131
▁gloves	-11.6131
▁identify	-11.6131
▁institute	-11.6131
▁kimbap	-11.6131
▁marathon	-11.6131
▁neither	-11.6131
▁probation	-11.6131
▁protagonist	-11.6131
▁puppy	-11.6131
▁radish	-11.6131
▁retake	-11.6131
▁romantic	-11.6131
▁screw	-11.6131
▁sirloin	-11.6131
▁society	-11.6131
▁sponge	-11.6131
▁strawberries	-11.6131
▁supervisor	-11.6131
▁swelling	-11.6131
▁unavailable	-11.6131
▁visible	-11.6131
▁yongsan	-11.6131
▁humid	-11.6131
▁pantry	-11.6131
▁backward	-11.6131
▁olive	-11.6131
ssuance	-11.6131
▁handicapped	-11.6131
▁excessive	-11.6131
▁internship	-11.6131
▁cheesecake	-11.6131
▁retirement	-11.6131
▁investigation	-11.6131
▁wax	-11.6131
▁crispy	-11.6132
▁ondol	-11.6132
▁electricity	-11.6133
▁edition	-11.6133
▁bake	-11.6133
▁hallway	-11.6134
▁towed	-11.6134
▁stroller	-11.6134
▁meters	-11.6134
▁pile	-11.6135
▁incorrectly	-11.6135
▁basically	-11.6135
▁expression	-11.6135
▁incredible	-11.6137
▁countryside	-11.6139
▁acceptable	-11.614
▁drawn	-11.614
▁meaningful	-11.6141
▁garment	-11.6142
illa	-11.6147
▁combined	-11.6148
▁heater	-11.6151
▁poorly	-11.6151
▁strengthen	-11.6152
▁200,000	-11.6153
▁parttimer	-11.6155
▁proposed	-11.6157
▁mountains	-11.616
▁guaranteed	-11.6163
▁34	-11.6164
▁hu	-11.6164
▁tools	-11.6165
▁finishes	-11.6166
▁sim	-11.6201
intestin	-11.6203
▁developer	-11.6203
▁candidates	-11.6209
▁macarons	-11.6209
▁net	-11.6224
▁runn	-11.6243
▁compar	-11.6253
▁speeding	-11.6259
▁smelled	-11.6263
▁layers	-11.6266
▁valuables	-11.6279
▁hop	-11.6284
▁aim	-11.6295
▁greater	-11.6299
▁experts	-11.6308
3,000	-11.632
gging	-11.6322
list	-11.633
▁manners	-11.6336
▁noticed	-11.6351
▁curtains	-11.6365
▁rains	-11.6372
▁bones	-11.6379
▁stu	-11.6406
▁evaluate	-11.6412
ssed	-11.6437
▁sole	-11.6439
▁dealing	-11.6446
sure	-11.6456
▁ph	-11.6492
▁tester	-11.6539
▁gil	-11.6559
hwa	-11.6563
▁stra	-11.6563
▁nor	-11.6589
▁pads	-11.6602
▁fingers	-11.6612
▁war	-11.6623
ware	-11.6632
▁colleague	-11.6645
▁comment	-11.6645
▁parent	-11.665
shaped	-11.6655
▁coin	-11.6662
▁foreigner	-11.669
▁lipsticks	-11.6703
▁accommodations	-11.6718
▁spaces	-11.6732
▁31	-11.6738
▁springs	-11.6759
terior	-11.676
▁sha	-11.6768
pan	-11.6772
▁chang	-11.68
▁ade	-11.6802
▁releas	-11.6817
▁26	-11.6818
▁finalize	-11.6822
place	-11.6825
▁influence	-11.6836
▁intention	-11.6836
sorted	-11.6839
▁precise	-11.684
▁mold	-11.6841
▁jun	-11.6841
▁active	-11.6842
▁mosquito	-11.6844
▁eight	-11.6845
▁administer	-11.6845
▁conflict	-11.6845
▁divorce	-11.6845
▁negative	-11.6845
▁amenities	-11.6845
▁bothersome	-11.6845
▁brake	-11.6845
▁burdensome	-11.6845
▁cathedral	-11.6845
▁cautious	-11.6845
▁certification	-11.6845
▁coex	-11.6845
▁commuting	-11.6845
▁constipation	-11.6845
▁division	-11.6845
▁glitter	-11.6845
▁gwanghwamun	-11.6845
▁humidifier	-11.6845
▁hygiene	-11.6845
▁luxurious	-11.6845
▁minjung	-11.6845
▁overdue	-11.6845
▁pitch	-11.6845
▁platform	-11.6845
▁problematic	-11.6845
▁remittance	-11.6845
▁ribbon	-11.6845
▁roundtrip	-11.6845
▁scanner	-11.6845
▁spiciness	-11.6845
▁tariff	-11.6845
▁tenderloin	-11.6845
▁urine	-11.6845
▁violent	-11.6845
▁violate	-11.6845
▁width	-11.6845
▁wild	-11.6845
▁unfair	-11.6845
▁intensity	-11.6845
▁mustard	-11.6845
▁translator	-11.6845
▁hung	-11.6846
▁passionate	-11.6846
▁factor	-11.6846
▁consultant	-11.6846
▁rising	-11.6846
▁uber	-11.6846
▁giftwrap	-11.6846
▁straw	-11.6846
▁differentiate	-11.6846
▁hangover	-11.6846
▁improvement	-11.6846
▁odd	-11.6847
▁cola	-11.6847
▁rip	-11.6847
▁forgotten	-11.6847
▁prayer	-11.6847
▁930	-11.6847
▁bond	-11.6847
▁consistently	-11.6848
raising	-11.6849
▁scratches	-11.6849
▁tomatoes	-11.6849
uxe	-11.685
▁surrounding	-11.685
▁fle	-11.6851
▁italy	-11.6851
▁fry	-11.6853
▁3000	-11.6854
aged	-11.6854
ju	-11.6855
▁sang	-11.6856
▁patt	-11.6858
▁hye	-11.6863
▁cats	-11.6864
▁dresses	-11.6865
▁harm	-11.6865
▁flyer	-11.6866
▁locked	-11.6872
▁legally	-11.6872
▁fairly	-11.6873
▁affected	-11.6875
▁painted	-11.6881
▁imagined	-11.6884
▁redo	-11.6892
▁appeared	-11.6895
▁conducting	-11.6898
▁requirements	-11.6914
▁wrinkles	-11.6927
▁candles	-11.6929
▁smoked	-11.6929
▁receiver	-11.6932
▁lightly	-11.6939
▁restrictions	-11.6959
▁users	-11.696
▁answered	-11.6974
▁gap	-11.6982
▁inquir	-11.6987
▁presenter	-11.6999
▁22	-11.7016
▁profits	-11.7041
▁meaning	-11.7068
▁participated	-11.7076
oli	-11.7091
▁servings	-11.7098
▁pressing	-11.7105
▁monitors	-11.7121
▁lu	-11.7142
▁officer	-11.7159
▁rev	-11.716
▁fishing	-11.717
▁novels	-11.7218
▁proceeding	-11.7234
eu	-11.7247
▁curls	-11.725
quality	-11.7258
▁bandages	-11.7285
ural	-11.7305
8,000	-11.7358
▁continu	-11.7375
▁allows	-11.738
▁reactions	-11.7395
gan	-11.7408
▁root	-11.7412
▁expert	-11.7413
▁rating	-11.7414
▁animal	-11.7415
20	-11.7428
dian	-11.745
▁burns	-11.7501
▁ne	-11.7515
▁divid	-11.7549
▁pear	-11.7581
▁manufacture	-11.7583
▁expire	-11.7589
▁applie	-11.7589
▁accumulate	-11.759
▁propose	-11.759
▁reserv	-11.7592
▁dispatch	-11.7601
▁rank	-11.7604
graph	-11.7607
▁incredibl	-11.7608
▁surprising	-11.7609
▁incorrect	-11.761
▁boo	-11.7611
▁australia	-11.7612
▁easie	-11.7612
▁eyelash	-11.7613
▁bra	-11.7614
▁jelly	-11.7614
▁affiliate	-11.7614
▁assessment	-11.7614
▁avocado	-11.7614
▁bloated	-11.7614
▁century	-11.7614
▁certified	-11.7614
▁council	-11.7614
▁criminal	-11.7614
▁daegu	-11.7614
▁decorate	-11.7614
▁decoration	-11.7614
▁diligent	-11.7614
▁district	-11.7614
▁expenditure	-11.7614
▁gender	-11.7614
▁grandfather	-11.7614
▁hidden	-11.7614
▁hometown	-11.7614
▁implement	-11.7614
▁injury	-11.7614
▁interfere	-11.7614
▁iphone	-11.7614
▁ketchup	-11.7614
▁keychain	-11.7614
▁lazy	-11.7614
▁literal	-11.7614
▁london	-11.7614
▁modified	-11.7614
▁phenomenon	-11.7614
▁photoshoot	-11.7614
▁picnic	-11.7614
▁pleasure	-11.7614
▁policies	-11.7614
▁preliminar	-11.7614
▁recipient	-11.7614
▁reference	-11.7614
▁reorder	-11.7614
▁represent	-11.7614
▁reputation	-11.7614
▁rhinitis	-11.7614
▁rooftop	-11.7614
▁swimsuit	-11.7614
▁tailor	-11.7614
▁thigh	-11.7614
▁victim	-11.7614
▁disneyland	-11.7614
▁drove	-11.7614
▁extent	-11.7614
▁incentive	-11.7614
▁plain	-11.7614
▁rope	-11.7614
▁speech	-11.7614
▁debut	-11.7614
▁apology	-11.7614
▁debate	-11.7614
▁charm	-11.7614
▁barbequ	-11.7614
▁gwangju	-11.7614
▁bucket	-11.7615
▁italian	-11.7615
▁dining	-11.7615
▁hilt	-11.7615
▁participation	-11.7615
▁passageway	-11.7615
▁yons	-11.7615
▁cabinet	-11.7615
▁vacancy	-11.7615
▁jammed	-11.7615
▁rehabilitation	-11.7615
▁villa	-11.7615
▁pickles	-11.7615
▁expo	-11.7615
▁interestfree	-11.7615
▁surf	-11.7615
▁grandma	-11.7615
▁occasionally	-11.7615
▁popup	-11.7616
▁solid	-11.7616
▁childcare	-11.7616
▁cleanser	-11.7616
▁exclude	-11.7616
▁inject	-11.7617
▁foam	-11.7617
▁mock	-11.7618
▁lab	-11.7619
▁manufacturer	-11.7619
▁strain	-11.7619
▁graph	-11.7619
▁partial	-11.7619
▁selection	-11.762
▁gree	-11.762
▁boost	-11.762
▁photography	-11.7622
▁documentation	-11.7622
▁conclude	-11.7624
▁login	-11.7624
▁1,500	-11.7625
▁illness	-11.7626
▁determined	-11.7626
▁qa	-11.7628
▁successfully	-11.7629
▁90,000	-11.763
▁union	-11.763
▁renewed	-11.7633
▁secretly	-11.7635
▁severely	-11.7636
▁producer	-11.7637
▁stationary	-11.7637
▁x	-11.7639
▁distributed	-11.764
▁cancelation	-11.7641
▁unma	-11.7645
▁scratched	-11.7649
▁takeoff	-11.7667
▁appliances	-11.7672
▁aspects	-11.7672
▁headphones	-11.7672
▁fighting	-11.7674
▁volunteering	-11.7678
▁core	-11.769
▁bent	-11.7707
▁raised	-11.7724
▁crossing	-11.7725
▁forever	-11.7742
▁practiced	-11.7767
▁adjusting	-11.7793
▁nicely	-11.7795
▁habits	-11.7802
▁roots	-11.7821
▁cooling	-11.7852
▁mist	-11.7893
▁ca	-11.7936
▁joo	-11.795
▁albums	-11.7955
▁par	-11.7966
▁equal	-11.7978
▁plants	-11.8034
▁notebooks	-11.8143
▁steame	-11.8158
▁stains	-11.8161
yeong	-11.8197
▁peanut	-11.8249
▁cu	-11.8254
▁ob	-11.8266
▁environmental	-11.8279
▁habit	-11.8291
▁700	-11.8323
inning	-11.8354
▁solv	-11.8354
nned	-11.8365
▁remov	-11.8416
▁reduc	-11.8418
▁camp	-11.842
▁climb	-11.842
▁resolve	-11.8422
▁shock	-11.8434
school	-11.8442
cost	-11.8442
▁batter	-11.8443
▁opera	-11.8446
▁actress	-11.8446
▁reimburse	-11.8447
▁blank	-11.8448
▁aroma	-11.8448
▁blink	-11.8448
▁chemical	-11.8448
▁communicate	-11.8448
▁gentle	-11.8448
▁knit	-11.8448
▁magnet	-11.8448
▁scream	-11.8448
▁unconscious	-11.8448
frequenc	-11.8448
▁apologies	-11.8448
▁applicable	-11.8448
▁availability	-11.8448
▁ballpark	-11.8448
▁bookshelf	-11.8448
▁bubble	-11.8448
▁cherry	-11.8448
▁crime	-11.8448
▁debating	-11.8448
▁decaffeinated	-11.8448
▁depressed	-11.8448
▁diagnosis	-11.8448
▁disadvantage	-11.8448
▁discard	-11.8448
▁diverse	-11.8448
▁doubt	-11.8448
▁eyeshadow	-11.8448
▁fake	-11.8448
▁flies	-11.8448
▁freebies	-11.8448
▁freight	-11.8448
▁generous	-11.8448
▁gimpo	-11.8448
▁impressed	-11.8448
▁improving	-11.8448
▁interrupt	-11.8448
▁intranet	-11.8448
▁john	-11.8448
▁kindergarten	-11.8448
▁ligament	-11.8448
▁military	-11.8448
▁muffler	-11.8448
▁newlywed	-11.8448
▁obtain	-11.8448
▁questionnaire	-11.8448
▁recession	-11.8448
▁resolution	-11.8448
▁revenue	-11.8448
▁reward	-11.8448
▁roaming	-11.8448
▁shadow	-11.8448
▁soundproof	-11.8448
▁steady	-11.8448
▁suck	-11.8448
▁trademark	-11.8448
▁unfamiliar	-11.8448
▁verified	-11.8448
▁wheelchair	-11.8448
▁whiskey	-11.8448
▁beyond	-11.8448
▁death	-11.8448
▁disabled	-11.8448
▁estate	-11.8448
▁retail	-11.8448
▁starving	-11.8448
▁surface	-11.8448
▁minimize	-11.8448
▁native	-11.8448
▁stone	-11.8448
▁toenail	-11.8448
▁freshmen	-11.8448
▁trial	-11.8448
▁expectations	-11.8448
▁thread	-11.8448
ities	-11.8448
▁yuna	-11.8448
▁addictive	-11.8448
▁assume	-11.8448
▁inevitable	-11.8448
▁clip	-11.8448
▁myeong	-11.8448
▁vend	-11.8448
▁spoke	-11.8448
▁objective	-11.8448
▁flew	-11.8449
▁accessory	-11.8449
▁rail	-11.8449
▁appearance	-11.8449
▁myster	-11.8449
▁counterparty	-11.8449
▁visual	-11.8449
▁memories	-11.8449
▁undergo	-11.8449
▁blonde	-11.845
▁cardio	-11.845
▁powerful	-11.845
▁awful	-11.8451
▁jung	-11.8451
▁chilly	-11.8452
▁minist	-11.8453
▁halfway	-11.8453
▁truth	-11.8453
▁swipe	-11.8455
▁chain	-11.8456
▁obviously	-11.8458
▁sung	-11.8458
▁halfday	-11.8459
▁messy	-11.846
▁overslept	-11.8461
▁positively	-11.8463
▁530	-11.8463
▁lay	-11.8464
▁trendy	-11.8468
▁flooded	-11.8469
▁softer	-11.847
▁youtuber	-11.847
▁projector	-11.847
▁suffered	-11.8471
▁7,000	-11.8471
▁quicker	-11.8477
▁duration	-11.8484
▁dryer	-11.8485
▁pic	-11.8487
▁butter	-11.8488
▁loaded	-11.8492
▁grad	-11.8492
▁thesis	-11.8494
▁exporter	-11.8496
▁relaxed	-11.8496
▁burned	-11.8498
▁engineering	-11.85
▁attractions	-11.8529
▁switched	-11.8538
▁oysters	-11.8547
▁aches	-11.8564
300	-11.857
▁wis	-11.857
▁exporting	-11.8596
ied	-11.8607
▁discussing	-11.8611
▁recording	-11.8611
▁lanes	-11.8619
▁cartons	-11.8637
▁obse	-11.8642
▁ratings	-11.8673
▁presented	-11.8683
▁overdo	-11.8717
▁bugs	-11.8765
▁forks	-11.8786
▁remembered	-11.8818
▁fasten	-11.8871
60	-11.8899
▁120	-11.8902
▁45	-11.8946
log	-11.8987
ik	-11.9002
ify	-11.9022
▁vo	-11.9028
gic	-11.9044
▁75	-11.9067
her	-11.9068
night	-11.9094
▁ri	-11.9111
▁900	-11.9124
▁chu	-11.914
▁valuable	-11.9155
▁bedroom	-11.9158
▁carton	-11.9158
▁rewrit	-11.9169
fully	-11.9201
▁plac	-11.9278
acc	-11.9295
▁annoy	-11.933
▁woo	-11.9331
▁pickpocket	-11.9343
▁engine	-11.9344
war	-11.9346
payment	-11.935
▁frequent	-11.9352
▁unfortunate	-11.9352
▁chill	-11.9353
▁circula	-11.9357
▁vacan	-11.9357
▁admit	-11.9357
▁gwang	-11.9357
cular	-11.9357
▁anchov	-11.9357
▁gyeongbok	-11.9357
▁cinema	-11.9357
▁handsome	-11.9357
▁punch	-11.9357
▁appetizer	-11.9357
▁athletic	-11.9357
▁barbecue	-11.9357
▁bruise	-11.9357
▁bundle	-11.9357
▁capture	-11.9357
▁carriage	-11.9357
▁collided	-11.9357
▁conclusion	-11.9357
▁courage	-11.9357
▁crustaceans	-11.9357
▁deck	-11.9357
▁decline	-11.9357
▁drone	-11.9357
▁elsewhere	-11.9357
▁employed	-11.9357
▁extinguisher	-11.9357
▁flustered	-11.9357
▁garlic	-11.9357
▁generate	-11.9357
▁harassment	-11.9357
▁hectic	-11.9357
▁hongdae	-11.9357
▁horror	-11.9357
▁instructor	-11.9357
▁itaewon	-11.9357
▁lean	-11.9357
▁madeleine	-11.9357
▁manufacturing	-11.9357
▁molar	-11.9357
▁nonrefundable	-11.9357
▁outsourcing	-11.9357
▁perspective	-11.9357
▁piano	-11.9357
▁pleasant	-11.9357
▁principle	-11.9357
▁pumpkin	-11.9357
▁scooter	-11.9357
▁sentence	-11.9357
▁silent	-11.9357
▁slack	-11.9357
▁sprout	-11.9357
▁square	-11.9357
▁steadily	-11.9357
▁trekking	-11.9357
▁uturn	-11.9357
▁vibration	-11.9357
▁yogurt	-11.9357
▁amateur	-11.9357
▁firstaid	-11.9357
▁notepad	-11.9357
▁orientation	-11.9357
▁convert	-11.9357
▁liking	-11.9357
▁snake	-11.9357
▁subscription	-11.9357
▁measurements	-11.9357
culation	-11.9357
▁cargo	-11.9357
▁motion	-11.9357
▁bidding	-11.9357
▁slot	-11.9357
▁fuss	-11.9357
▁terminate	-11.9357
▁assets	-11.9357
▁copier	-11.9357
▁inches	-11.9357
▁racket	-11.9357
▁pure	-11.9357
▁elastic	-11.9357
▁fought	-11.9357
▁typical	-11.9357
▁styling	-11.9357
▁hq	-11.9357
▁stories	-11.9357
▁newbie	-11.9357
▁banned	-11.9357
▁sunblock	-11.9357
▁arch	-11.9357
▁disinfectant	-11.9357
▁2019	-11.9357
▁tint	-11.9357
▁rode	-11.9357
▁ppt	-11.9358
cious	-11.9358
▁huh	-11.9358
▁bro	-11.9358
▁objection	-11.9358
▁vice	-11.9359
▁eyelashes	-11.9359
▁protection	-11.9359
▁audition	-11.9359
▁pace	-11.9359
▁pillar	-11.9359
▁toeic	-11.936
▁outlet	-11.936
▁mug	-11.9363
▁source	-11.9363
▁actively	-11.9363
▁celebrating	-11.9364
▁alive	-11.9365
▁towing	-11.9365
▁classroom	-11.9366
▁wandering	-11.9366
▁limitation	-11.9367
▁1030	-11.9368
▁publicity	-11.9368
▁dial	-11.9369
▁120,000	-11.9369
▁jang	-11.937
▁somi	-11.937
ug	-11.9375
▁deducted	-11.9376
▁safer	-11.9378
▁5000	-11.9378
▁bb	-11.9379
▁48	-11.9381
▁inserted	-11.9382
▁melted	-11.9383
▁climbing	-11.9388
▁adapter	-11.9388
▁ranking	-11.939
▁finalized	-11.9396
▁4,000	-11.9397
▁achieved	-11.9402
▁sweeter	-11.9407
▁addresses	-11.9408
▁breathing	-11.9409
▁deleted	-11.9414
▁deserve	-11.9419
▁painter	-11.9421
▁jumping	-11.9425
▁oneway	-11.9431
▁theft	-11.9433
▁rushed	-11.9448
▁someday	-11.9451
▁blocking	-11.9452
oyal	-11.9453
care	-11.9454
▁graded	-11.9517
▁130	-11.9523
▁useless	-11.9525
▁bestsellers	-11.9545
▁bedrooms	-11.9565
▁hourly	-11.9595
▁confirming	-11.9599
air	-11.9646
▁formed	-11.9656
light	-11.9675
▁32	-11.97
qualified	-11.973
ama	-11.9759
▁jong	-11.9798
ification	-11.9868
▁retire	-11.9873
▁browse	-11.9902
▁235	-11.9961
cial	-12.0056
▁bestseller	-12.0153
▁lane	-12.0156
▁antibiotic	-12.0156
▁component	-12.0156
▁cucumber	-12.0156
▁eyebrow	-12.0157
▁layer	-12.016
ear	-12.0197
land	-12.0228
tually	-12.023
▁heel	-12.0239
▁tutor	-12.0328
▁combine	-12.033
▁invit	-12.0334
ei	-12.0337
▁establish	-12.0343
▁prohibit	-12.0344
print	-12.0349
▁blend	-12.0349
cooked	-12.035
speed	-12.0351
hyun	-12.0352
▁significant	-12.0352
young	-12.0352
▁fil	-12.0352
▁approximate	-12.0352
▁continuous	-12.0353
▁immediate	-12.0354
lease	-12.0354
▁russia	-12.0355
▁choi	-12.0356
▁entertain	-12.0357
▁incur	-12.0357
▁casual	-12.0357
▁abalone	-12.0357
▁absurd	-12.0357
▁agencies	-12.0357
▁ancestors	-12.0357
▁antiinflammator	-12.0357
▁arrow	-12.0357
▁associate	-12.0357
▁attempt	-12.0357
▁attorney	-12.0357
▁badminton	-12.0357
▁balcony	-12.0357
▁bestselling	-12.0357
▁buzz	-12.0357
▁caramel	-12.0357
▁caregiver	-12.0357
▁ceramic	-12.0357
▁chauffeur	-12.0357
▁cheeseburger	-12.0357
▁chicago	-12.0357
▁congested	-12.0357
▁desperately	-12.0357
▁diapers	-12.0357
▁experiencing	-12.0357
▁expertise	-12.0357
▁february	-12.0357
▁fellow	-12.0357
▁francis	-12.0357
▁frustrating	-12.0357
▁grapefruit	-12.0357
▁hairdryer	-12.0357
▁heartburn	-12.0357
▁herself	-12.0357
▁indonesia	-12.0357
▁january	-12.0357
▁knives	-12.0357
▁knowledge	-12.0357
▁literature	-12.0357
▁longdistance	-12.0357
▁prospect	-12.0357
▁quantities	-12.0357
▁quarantine	-12.0357
▁reissuance	-12.0357
▁rentacar	-12.0357
▁residence	-12.0357
▁restructuring	-12.0357
▁routine	-12.0357
▁scold	-12.0357
▁shanghai	-12.0357
▁slide	-12.0357
▁specify	-12.0357
▁spelling	-12.0357
▁struggle	-12.0357
▁suspect	-12.0357
▁teenagers	-12.0357
▁tournament	-12.0357
▁transparent	-12.0357
▁trunk	-12.0357
▁turbulence	-12.0357
▁turkey	-12.0357
▁verification	-12.0357
▁violation	-12.0357
▁walnuts	-12.0357
▁waterfall	-12.0357
▁workforce	-12.0357
▁blister	-12.0357
▁dutch	-12.0357
▁harsh	-12.0357
▁intense	-12.0357
▁lake	-12.0357
▁shellfish	-12.0357
▁summary	-12.0357
▁cartoon	-12.0357
▁lawyer	-12.0357
▁sedan	-12.0357
▁freshener	-12.0357
▁lactobacillus	-12.0357
▁pretend	-12.0357
▁lamp	-12.0357
▁grey	-12.0357
▁chopp	-12.0357
▁kilograms	-12.0357
▁insole	-12.0357
▁guidelines	-12.0357
▁guidance	-12.0357
▁skat	-12.0357
▁illustration	-12.0357
▁balm	-12.0357
▁outdated	-12.0357
▁exposed	-12.0357
▁giftwrapping	-12.0357
▁satisfactory	-12.0357
▁scanned	-12.0357
▁reduction	-12.0357
▁childhood	-12.0357
▁inquiries	-12.0358
fish	-12.0358
▁sterilizer	-12.0358
▁complimentary	-12.0358
▁vibe	-12.0358
▁spacious	-12.0358
ential	-12.0358
▁commerce	-12.0358
▁competitiveness	-12.0358
▁creative	-12.0358
▁controlled	-12.0358
▁namsa	-12.0358
▁referee	-12.0358
▁hostel	-12.0358
▁hotter	-12.0358
▁dubb	-12.0359
▁heavily	-12.0359
▁actresses	-12.0359
▁sight	-12.0359
▁facebook	-12.0359
▁overweight	-12.036
▁percentage	-12.036
▁bankbook	-12.036
▁bible	-12.0361
▁housework	-12.0362
▁appointed	-12.0362
▁comic	-12.0362
▁rejected	-12.0362
▁outfield	-12.0363
▁adopted	-12.0363
▁surprisingly	-12.0363
▁disc	-12.0365
▁profitable	-12.0365
▁sn	-12.0366
▁roasted	-12.0366
▁spoiled	-12.0366
▁lg	-12.0366
▁ox	-12.0367
▁gun	-12.0368
▁absorbed	-12.0368
▁insist	-12.0368
▁viewers	-12.0368
pay	-12.0369
▁stable	-12.037
▁accurately	-12.037
▁established	-12.037
▁curve	-12.0371
▁publisher	-12.0371
iness	-12.0373
▁shocked	-12.0373
liness	-12.038
▁daytime	-12.0392
▁officially	-12.0394
▁remover	-12.0397
▁mini	-12.0398
▁stretched	-12.0401
▁outcome	-12.0402
▁entirely	-12.0404
▁utensils	-12.0412
▁complaining	-12.0422
▁fishy	-12.0426
▁analyzed	-12.0426
▁strongly	-12.043
▁responding	-12.0439
▁editing	-12.0451
▁rained	-12.0454
▁refundable	-12.0454
ology	-12.0455
▁spreading	-12.0457
▁lifting	-12.0463
jeong	-12.0475
800	-12.0484
▁stated	-12.0501
mental	-12.0507
▁beside	-12.0521
mia	-12.0539
▁fi	-12.0562
mission	-12.0587
▁dressed	-12.0601
▁kindly	-12.0616
▁cd	-12.062
▁enhance	-12.064
▁spit	-12.0644
▁onboard	-12.0662
▁colo	-12.0682
pyeong	-12.0787
▁sprinkle	-12.0789
deal	-12.0801
▁trace	-12.0829
▁dan	-12.0848
seong	-12.0991
▁oppos	-12.1015
▁cur	-12.1208
200	-12.1224
▁olympic	-12.1267
▁circumstance	-12.127
soo	-12.1295
▁cor	-12.13
▁visitor	-12.1332
▁critic	-12.1336
▁tr	-12.1383
served	-12.1385
▁extract	-12.1389
▁distribute	-12.1447
▁suspend	-12.1455
▁crowd	-12.1455
like	-12.1461
down	-12.1461
back	-12.1462
mobile	-12.1462
level	-12.1462
▁definite	-12.1463
guide	-12.1463
keeper	-12.1465
▁corn	-12.1465
▁matte	-12.1466
▁stole	-12.1466
▁industri	-12.1466
▁lens	-12.1466
▁react	-12.1467
▁conscious	-12.1467
esthetic	-12.1468
punctu	-12.1468
▁abdom	-12.1468
▁billiard	-12.1468
▁consecutive	-12.1468
▁distinguish	-12.1468
▁kakao	-12.1468
▁motivat	-12.1468
▁plaster	-12.1468
▁precaution	-12.1468
▁telepho	-12.1468
▁uncle	-12.1468
embark	-12.1468
nwoo	-12.1468
▁academi	-12.1468
▁acrylic	-12.1468
▁aquarium	-12.1468
▁banana	-12.1468
▁california	-12.1468
▁carpool	-12.1468
▁caution	-12.1468
▁challenging	-12.1468
▁cilantro	-12.1468
▁circling	-12.1468
▁citizen	-12.1468
▁cliff	-12.1468
▁collaboration	-12.1468
▁confidence	-12.1468
▁confusion	-12.1468
▁console	-12.1468
▁curator	-12.1468
▁diffuser	-12.1468
▁dinosaur	-12.1468
▁disaster	-12.1468
▁dishwasher	-12.1468
▁dormitory	-12.1468
▁emotional	-12.1468
▁enroll	-12.1468
▁fatigue	-12.1468
▁gently	-12.1468
▁glue	-12.1468
▁guitar	-12.1468
▁hoodie	-12.1468
▁infected	-12.1468
▁jajangmyeon	-12.1468
▁jeonju	-12.1468
▁landscape	-12.1468
▁lobster	-12.1468
▁luxury	-12.1468
▁microphone	-12.1468
▁minibar	-12.1468
▁necessities	-12.1468
▁omelet	-12.1468
▁pangyo	-12.1468
▁philippines	-12.1468
▁poisoning	-12.1468
▁political	-12.1468
▁queue	-12.1468
▁realistic	-12.1468
▁remake	-12.1468
▁risotto	-12.1468
▁salaries	-12.1468
▁sandals	-12.1468
▁seaweed	-12.1468
▁seulki	-12.1468
▁sidewalk	-12.1468
▁strategies	-12.1468
▁supplied	-12.1468
▁thief	-12.1468
▁trustworthy	-12.1468
▁twenty	-12.1468
▁underneath	-12.1468
▁verbal	-12.1468
▁volleyball	-12.1468
▁workload	-12.1468
▁yard	-12.1468
▁compartment	-12.1468
▁cried	-12.1468
▁mucus	-12.1468
▁snore	-12.1468
▁coast	-12.1468
▁debit	-12.1468
▁fireworks	-12.1468
▁microwave	-12.1468
▁newcomer	-12.1468
▁orienta	-12.1468
▁surviv	-12.1468
ratory	-12.1468
▁protest	-12.1468
▁hairpin	-12.1468
▁categorize	-12.1468
▁insect	-12.1468
▁elect	-12.1468
▁salve	-12.1468
▁wallpaper	-12.1468
▁priva	-12.1468
▁submission	-12.1468
▁trail	-12.1468
▁props	-12.1468
▁memori	-12.1468
▁embarrassing	-12.1468
▁layover	-12.1468
▁headset	-12.1468
▁angle	-12.1468
▁trot	-12.1468
▁hesitat	-12.1468
▁nine	-12.1468
▁demonstration	-12.1468
▁layout	-12.1469
▁campus	-12.1469
▁roommate	-12.1469
▁seattle	-12.1469
▁hook	-12.1469
▁achievement	-12.1469
▁cities	-12.1469
▁noontime	-12.1469
▁margin	-12.1469
▁stitches	-12.1469
▁breakdown	-12.1469
▁suwon	-12.1469
▁matri	-12.1469
▁libera	-12.147
▁swear	-12.147
▁arrangement	-12.147
dental	-12.147
▁workdays	-12.147
▁mosquitoes	-12.147
▁russian	-12.1471
▁comedy	-12.1471
▁crew	-12.1471
▁weakness	-12.1471
▁911	-12.1472
▁gpa	-12.1472
▁psy	-12.1472
▁830	-12.1472
▁significantly	-12.1474
▁brushes	-12.1474
▁forced	-12.1474
▁moldy	-12.1475
▁sandwiches	-12.1475
▁james	-12.1475
gung	-12.1475
▁accountant	-12.1476
▁quickest	-12.1479
▁blowdr	-12.1479
▁taxation	-12.1479
▁nap	-12.148
▁highlighter	-12.1481
▁400,000	-12.1481
▁exclusively	-12.1482
▁roughly	-12.1483
▁pickpocketed	-12.1485
▁noticeable	-12.1486
▁curly	-12.1486
▁thicker	-12.1487
▁shy	-12.1487
▁interviewers	-12.1487
▁workplace	-12.1489
▁passion	-12.1496
▁internally	-12.1497
▁wishes	-12.1499
▁ml	-12.1499
▁army	-12.1504
▁180	-12.1506
▁hosted	-12.1512
▁29	-12.1512
▁recovered	-12.1514
▁counted	-12.1514
▁resigning	-12.152
▁boiling	-12.153
▁contractor	-12.1536
▁sorted	-12.1538
▁warn	-12.1554
▁cheaply	-12.1561
▁filmed	-12.1568
▁flavored	-12.1574
▁amend	-12.1576
▁measured	-12.1599
▁ram	-12.161
▁bleaching	-12.1617
▁zip	-12.1641
▁usa	-12.1646
▁goodness	-12.1656
▁exceptional	-12.1726
most	-12.1758
▁spin	-12.1762
▁33	-12.185
rian	-12.1859
▁ci	-12.1895
▁sin	-12.1911
▁brows	-12.2002
▁concentrat	-12.2002
meter	-12.212
diction	-12.2219
▁220	-12.2279
▁330	-12.2298
existing	-12.2342
▁medi	-12.2359
▁bid	-12.2402
▁compu	-12.2438
▁innovati	-12.2482
▁restriction	-12.2516
▁infant	-12.2517
▁mushroom	-12.2519
▁instruction	-12.2521
▁bang	-12.2537
▁sue	-12.2543
▁85	-12.2572
door	-12.2619
lash	-12.2623
ka	-12.2643
▁defe	-12.2652
titude	-12.2676
▁physic	-12.2677
ified	-12.2683
▁ban	-12.2686
▁tub	-12.27
▁absorb	-12.2704
▁financ	-12.2705
view	-12.2709
▁info	-12.2711
sleeve	-12.2712
watch	-12.2712
read	-12.2712
dollar	-12.2712
fried	-12.2712
▁thorough	-12.2713
▁shredd	-12.2714
▁consistent	-12.2714
▁consume	-12.2715
▁administrati	-12.2717
ruck	-12.2717
▁element	-12.2718
▁remit	-12.2718
▁travers	-12.2718
▁blossom	-12.2718
▁breach	-12.2718
▁dermatologist	-12.2718
▁drain	-12.2718
▁reinstall	-12.2718
▁trick	-12.2718
▁ultimate	-12.2718
▁accessible	-12.2718
▁accompanied	-12.2718
▁accru	-12.2718
▁aggressive	-12.2718
▁ambiguous	-12.2718
▁antiseptic	-12.2718
▁archery	-12.2718
▁bankrupt	-12.2718
▁borough	-12.2718
▁champagne	-12.2718
▁clogged	-12.2718
▁comprehensive	-12.2718
▁cooperating	-12.2718
▁correspond	-12.2718
▁crossroad	-12.2718
▁curiosity	-12.2718
▁drowsy	-12.2718
▁earplug	-12.2718
▁ecigarette	-12.2718
▁elaborate	-12.2718
▁elegant	-12.2718
▁elephant	-12.2718
▁engraving	-12.2718
▁expansion	-12.2718
▁feminine	-12.2718
▁flaw	-12.2718
▁frustrated	-12.2718
▁generation	-12.2718
▁haeundae	-12.2718
▁hairband	-12.2718
▁happiness	-12.2718
▁heroine	-12.2718
▁hesitant	-12.2718
▁hobbies	-12.2718
▁horrible	-12.2718
▁hyper	-12.2718
▁indigestion	-12.2718
▁influenza	-12.2718
▁insufficient	-12.2718
▁irritated	-12.2718
▁kiwi	-12.2718
▁laboratory	-12.2718
▁leisure	-12.2718
▁lemonade	-12.2718
▁lettuce	-12.2718
▁manicure	-12.2718
▁marry	-12.2718
▁merchandise	-12.2718
▁nickname	-12.2718
▁offseason	-12.2718
▁parsley	-12.2718
▁physiotherapy	-12.2718
▁politics	-12.2718
▁postponing	-12.2718
▁praise	-12.2718
▁pregnancy	-12.2718
▁prototype	-12.2718
▁railroad	-12.2718
▁refreshments	-12.2718
▁rescue	-12.2718
▁restricted	-12.2718
▁shattered	-12.2718
▁sparkl	-12.2718
▁squeez	-12.2718
▁struggling	-12.2718
▁stupid	-12.2718
▁technician	-12.2718
▁tempura	-12.2718
▁thinner	-12.2718
▁tongue	-12.2718
▁valley	-12.2718
▁venture	-12.2718
▁veranda	-12.2718
▁cousin	-12.2718
▁eiff	-12.2718
▁flowerpot	-12.2718
▁palate	-12.2718
▁sensor	-12.2718
▁unstable	-12.2718
▁doorbell	-12.2718
▁serial	-12.2718
▁compress	-12.2718
▁argue	-12.2718
▁flush	-12.2718
▁tidy	-12.2718
▁vision	-12.2718
▁reveal	-12.2718
▁freezing	-12.2718
▁endure	-12.2718
▁situps	-12.2718
▁compound	-12.2718
▁envious	-12.2718
▁spinning	-12.2718
▁giftwrapped	-12.2718
▁micro	-12.2719
▁completion	-12.2719
▁midway	-12.2719
▁humanities	-12.2719
▁resp	-12.2719
▁cramp	-12.2719
▁palm	-12.2719
▁rome	-12.2719
▁herbs	-12.2719
▁hike	-12.2719
▁panel	-12.2719
▁meaningless	-12.272
▁diary	-12.272
▁leadership	-12.272
▁nursery	-12.272
▁deduction	-12.272
▁lime	-12.272
▁danger	-12.272
▁eyesight	-12.272
kmh	-12.272
▁wool	-12.272
▁kyo	-12.2721
▁opt	-12.2721
▁panic	-12.2721
▁dropping	-12.2721
▁transition	-12.2721
▁fals	-12.2721
▁moisturizer	-12.2722
▁freshman	-12.2722
▁jog	-12.2722
▁postman	-12.2722
▁toothbrushes	-12.2722
▁onsite	-12.2722
▁sty	-12.2723
▁prevention	-12.2723
▁eel	-12.2723
▁collapsed	-12.2723
▁snorkeling	-12.2724
▁tourism	-12.2724
▁patches	-12.2724
▁restore	-12.2725
▁effectiveness	-12.2726
▁steal	-12.2727
▁theatre	-12.2727
▁preserved	-12.2727
rivi	-12.2727
▁donations	-12.2727
▁blender	-12.2728
▁ahn	-12.2728
iscal	-12.273
▁permit	-12.2731
▁sur	-12.2732
▁integrate	-12.2732
▁blackout	-12.2732
▁aunt	-12.2736
▁forgetting	-12.2736
▁losses	-12.2737
▁tender	-12.2737
▁colorful	-12.2737
▁organ	-12.2738
▁unexpectedly	-12.2738
▁risky	-12.2739
▁cent	-12.2739
▁45,000	-12.274
▁unf	-12.2744
▁wav	-12.2746
▁dine	-12.2747
▁lecturer	-12.2749
▁published	-12.2754
▁tutoring	-12.2754
bone	-12.2756
▁leaked	-12.2758
▁301	-12.2758
▁sadly	-12.2758
▁manufactured	-12.2763
▁105	-12.2768
▁2000	-12.2769
▁warmer	-12.2773
▁peeling	-12.2773
▁settl	-12.2777
▁strangely	-12.2778
▁stained	-12.2779
▁translated	-12.2779
▁anybody	-12.278
▁backside	-12.2788
▁farther	-12.2788
▁effectively	-12.2789
▁downloaded	-12.2804
by	-12.2817
only	-12.2842
low	-12.2855
▁criticiz	-12.2869
▁hyun	-12.2974
iva	-12.3001
▁contribut	-12.3044
▁distinct	-12.3049
25	-12.3058
cuba	-12.3078
ple	-12.3144
equ	-12.3173
▁primar	-12.3259
▁utiliz	-12.3337
mediate	-12.34
han	-12.3414
▁restrain	-12.3444
▁encourage	-12.3457
70	-12.3504
▁65	-12.3518
opened	-12.3548
hine	-12.3635
pha	-12.3657
▁72	-12.3734
▁mic	-12.3752
▁wi	-12.3861
▁addict	-12.3918
▁squat	-12.3946
▁earring	-12.3949
▁cookie	-12.3954
▁sleeve	-12.3954
nstructed	-12.3968
bye	-12.3971
▁benefi	-12.4041
▁anti	-12.4089
▁disappoint	-12.4106
rmal	-12.4107
▁welcom	-12.411
▁compete	-12.411
inch	-12.412
▁desire	-12.412
▁stor	-12.4121
▁cry	-12.4125
▁distribut	-12.4125
▁ache	-12.4131
▁spoil	-12.4133
▁roast	-12.4133
cking	-12.4135
people	-12.4137
wrap	-12.4138
price	-12.414
cake	-12.414
grown	-12.4141
friendly	-12.4141
famous	-12.4141
large	-12.4141
wait	-12.4141
front	-12.4141
▁constant	-12.4142
plan	-12.4142
wide	-12.4145
▁stitch	-12.4145
▁grocer	-12.4146
▁excess	-12.4146
▁accomplish	-12.4146
▁caffe	-12.4146
▁condens	-12.4147
elecommunication	-12.4147
ibility	-12.4147
▁africa	-12.4147
▁alleviate	-12.4147
▁animation	-12.4147
▁anonymous	-12.4147
▁antidiarrheal	-12.4147
▁apparel	-12.4147
▁appreciation	-12.4147
▁aspirin	-12.4147
▁bacteria	-12.4147
▁baguette	-12.4147
▁blurry	-12.4147
▁briefcase	-12.4147
▁brilliant	-12.4147
▁cebu	-12.4147
▁chunk	-12.4147
▁classmates	-12.4147
▁communicating	-12.4147
▁compromise	-12.4147
▁conjunctivitis	-12.4147
▁consumption	-12.4147
▁costeffective	-12.4147
▁counselor	-12.4147
▁cyber	-12.4147
▁decaf	-12.4147
▁deficit	-12.4147
▁dentist	-12.4147
▁distracted	-12.4147
▁dolphin	-12.4147
▁dongdaemun	-12.4147
▁ecofriendly	-12.4147
▁eggplant	-12.4147
▁energetic	-12.4147
▁engagement	-12.4147
▁enquir	-12.4147
▁faith	-12.4147
▁flag	-12.4147
▁fluorescen	-12.4147
▁folk	-12.4147
▁fracture	-12.4147
▁garage	-12.4147
▁gauze	-12.4147
▁gelato	-12.4147
▁giveaway	-12.4147
▁hairdresser	-12.4147
▁hollywood	-12.4147
▁hurricane	-12.4147
▁insomnia	-12.4147
▁intake	-12.4147
▁irritating	-12.4147
▁keyword	-12.4147
▁lavatory	-12.4147
▁lodge	-12.4147
▁madame	-12.4147
▁mijin	-12.4147
▁muffin	-12.4147
▁nauseous	-12.4147
▁nonmember	-12.4147
▁november	-12.4147
▁okinawa	-12.4147
▁orthopedic	-12.4147
▁outgoing	-12.4147
▁output	-12.4147
▁parasol	-12.4147
▁pedicure	-12.4147
▁phamplet	-12.4147
▁pipes	-12.4147
▁pollack	-12.4147
▁possess	-12.4147
▁prioritize	-12.4147
▁profile	-12.4147
▁regain	-12.4147
▁religion	-12.4147
▁renovation	-12.4147
▁reorganize	-12.4147
▁repurchas	-12.4147
▁scout	-12.4147
▁sebum	-12.4147
▁shaky	-12.4147
▁shoelaces	-12.4147
▁sikhye	-12.4147
▁simultaneous	-12.4147
▁skewer	-12.4147
▁snoring	-12.4147
▁statue	-12.4147
▁stimulat	-12.4147
▁sunrise	-12.4147
▁suspicious	-12.4147
▁tangerine	-12.4147
▁tank	-12.4147
▁tardiness	-12.4147
▁technological	-12.4147
▁technologies	-12.4147
▁tetanus	-12.4147
▁thumb	-12.4147
▁tiramisu	-12.4147
▁ultrasound	-12.4147
▁unavoidable	-12.4147
▁unisex	-12.4147
▁unreasonable	-12.4147
▁vague	-12.4147
▁vancouver	-12.4147
▁vinegar	-12.4147
▁wobbl	-12.4147
▁anyhow	-12.4147
▁barley	-12.4147
▁dough	-12.4147
▁errand	-12.4147
▁explode	-12.4147
▁leaflet	-12.4147
▁lizard	-12.4147
▁novice	-12.4147
▁protocol	-12.4147
▁rehab	-12.4147
▁sculpture	-12.4147
▁secondhand	-12.4147
▁singleuse	-12.4147
▁ultra	-12.4147
▁vomit	-12.4147
▁circulation	-12.4147
▁eyelid	-12.4147
▁index	-12.4147
▁minimal	-12.4147
▁operator	-12.4147
▁overpass	-12.4147
▁properties	-12.4147
▁sake	-12.4147
▁ugly	-12.4147
▁unused	-12.4147
▁clich	-12.4147
▁invent	-12.4147
▁funeral	-12.4147
▁nationwide	-12.4147
▁rotation	-12.4147
▁mexic	-12.4147
▁outfit	-12.4147
▁memorize	-12.4147
▁copied	-12.4147
▁exempted	-12.4147
▁voluntarily	-12.4147
▁rust	-12.4147
▁enclose	-12.4147
▁infra	-12.4147
legation	-12.4147
▁buddy	-12.4147
▁intelligence	-12.4147
▁vivid	-12.4147
▁ampu	-12.4147
▁pdf	-12.4147
▁snail	-12.4147
▁ivory	-12.4147
▁staple	-12.4147
▁subscribers	-12.4147
▁chronic	-12.4147
▁column	-12.4147
▁swing	-12.4147
▁esc	-12.4147
▁waffle	-12.4147
▁gaming	-12.4147
▁subcontractor	-12.4147
▁oceanview	-12.4147
▁insured	-12.4147
▁immers	-12.4147
▁glow	-12.4147
▁reimbursement	-12.4147
▁float	-12.4147
▁lading	-12.4147
▁alert	-12.4147
▁property	-12.4147
▁extraordinary	-12.4148
▁confidential	-12.4148
▁sportswear	-12.4148
▁pores	-12.4149
▁uncooked	-12.4149
▁graphic	-12.4149
▁merger	-12.4149
▁lenses	-12.4149
▁flo	-12.4149
▁importance	-12.4149
▁occupied	-12.4149
▁thus	-12.4149
▁imprint	-12.4149
▁classified	-12.4149
▁groom	-12.415
▁affordable	-12.415
▁1100	-12.415
▁1130	-12.415
▁kang	-12.415
▁max	-12.415
▁salespeople	-12.415
▁grasp	-12.415
▁impatient	-12.4151
▁australian	-12.4151
▁sharpen	-12.4151
▁icebox	-12.4152
▁66	-12.4153
▁risen	-12.4153
▁superb	-12.4154
▁merit	-12.4155
▁brain	-12.4155
▁refreshed	-12.4156
▁precisely	-12.4157
▁satisfying	-12.4158
▁joy	-12.4158
▁mop	-12.4159
▁passage	-12.4159
valent	-12.416
▁stricter	-12.416
▁wheel	-12.4161
▁56	-12.4161
▁remodeling	-12.4162
▁outsiders	-12.4162
▁neatly	-12.4163
lette	-12.4166
▁reliever	-12.4166
▁gp	-12.4166
ntentionally	-12.4167
▁hip	-12.4171
▁2,500	-12.4175
▁calmly	-12.4176
▁skilled	-12.4178
▁crashed	-12.418
▁inspected	-12.4188
▁shine	-12.4191
▁slower	-12.4194
▁tongs	-12.4195
▁strip	-12.4198
▁39	-12.4198
▁louder	-12.4199
ndang	-12.4204
▁liver	-12.4205
▁101	-12.4205
▁cooker	-12.4209
▁historical	-12.421
▁roman	-12.4212
bore	-12.4215
wash	-12.4221
▁drag	-12.4223
▁cop	-12.4247
▁massager	-12.4262
▁loosen	-12.4277
,900	-12.4279
▁customize	-12.432
4,000	-12.4389
vid	-12.444
▁tense	-12.4441
written	-12.4484
▁economical	-12.4568
equat	-12.4712
▁650	-12.4771
▁shorten	-12.481
gb	-12.4843
04	-12.4854
80,000	-12.4954
adian	-12.4978
dai	-12.5105
▁investigat	-12.5211
dual	-12.5221
23	-12.525
▁contribute	-12.5385
ashed	-12.5406
iming	-12.5453
▁95	-12.5523
▁avi	-12.558
▁oyster	-12.561
▁candidate	-12.5612
▁macaron	-12.5612
▁relation	-12.5614
▁characteristic	-12.5615
▁wrinkle	-12.5615
▁candle	-12.5618
▁jeo	-12.5619
▁grain	-12.5635
▁typ	-12.5641
▁bio	-12.5646
scented	-12.5685
▁india	-12.5689
▁era	-12.5697
▁guid	-12.5714
dicated	-12.5718
▁pric	-12.5745
▁stri	-12.5752
▁har	-12.5761
▁promis	-12.5783
▁accord	-12.5786
▁determine	-12.5787
▁bleed	-12.5787
▁confuse	-12.5787
▁replac	-12.5793
color	-12.5794
rafting	-12.5802
▁dig	-12.5802
▁stroll	-12.5805
▁tap	-12.5805
source	-12.5807
kilo	-12.5807
employment	-12.5807
temporary	-12.5807
direct	-12.5807
happy	-12.5807
week	-12.5807
▁contra	-12.5808
flat	-12.5809
▁pharmac	-12.5809
break	-12.5809
▁numb	-12.5809
▁responsi	-12.5809
▁dirt	-12.5809
▁merge	-12.5811
cket	-12.5812
▁circu	-12.5812
▁regulat	-12.5812
▁navigat	-12.5812
▁subscribe	-12.5813
▁deliberat	-12.5813
▁bobbed	-12.5813
▁cheerlead	-12.5813
▁delinquen	-12.5813
▁disorder	-12.5813
▁enthusias	-12.5813
▁grind	-12.5813
▁mcdonald	-12.5813
▁prompt	-12.5813
▁qualification	-12.5813
▁spider	-12.5813
▁stream	-12.5813
▁utilit	-12.5813
inexperienced	-12.5813
ological	-12.5813
uffle	-12.5813
▁argument	-12.5813
▁bangkok	-12.5813
▁banner	-12.5813
▁barista	-12.5813
▁behavior	-12.5813
▁bowel	-12.5813
▁boycott	-12.5813
▁brazil	-12.5813
▁brunch	-12.5813
▁budapest	-12.5813
▁bulb	-12.5813
▁campaign	-12.5813
▁cappuccino	-12.5813
▁caretaker	-12.5813
▁checkpoint	-12.5813
▁cheek	-12.5813
▁clumsy	-12.5813
▁colombia	-12.5813
▁commemorate	-12.5813
▁complement	-12.5813
▁concealer	-12.5813
▁context	-12.5813
▁coordinate	-12.5813
▁counseling	-12.5813
▁courtesy	-12.5813
▁crystal	-12.5813
▁cycle	-12.5813
▁cycling	-12.5813
▁define	-12.5813
▁disgusting	-12.5813
▁dispenser	-12.5813
▁dispute	-12.5813
▁dissolve	-12.5813
▁elbow	-12.5813
▁emotions	-12.5813
▁exfoliat	-12.5813
▁exhausting	-12.5813
▁expiry	-12.5813
▁fierce	-12.5813
▁fragile	-12.5813
▁fragran	-12.5813
▁frappuccino	-12.5813
▁fritters	-12.5813
▁funnier	-12.5813
▁glance	-12.5813
▁grammar	-12.5813
▁gucci	-12.5813
▁gyeongju	-12.5813
▁halloween	-12.5813
▁handbag	-12.5813
▁harbor	-12.5813
▁hormone	-12.5813
▁horse	-12.5813
▁hundred	-12.5813
▁identical	-12.5813
▁konjac	-12.5813
▁landslide	-12.5813
▁laundromat	-12.5813
▁louvre	-12.5813
▁malfunction	-12.5813
▁mannequin	-12.5813
▁marvel	-12.5813
▁mattress	-12.5813
▁metropolitan	-12.5813
▁migraine	-12.5813
▁mugunghwa	-12.5813
▁nightscape	-12.5813
▁omitted	-12.5813
▁overload	-12.5813
▁paparazzi	-12.5813
▁pelvis	-12.5813
▁pepsi	-12.5813
▁philosoph	-12.5813
▁photocopier	-12.5813
▁piercing	-12.5813
▁pimples	-12.5813
▁pollution	-12.5813
▁prabang	-12.5813
▁prague	-12.5813
▁prolonged	-12.5813
▁protein	-12.5813
▁relics	-12.5813
▁relieving	-12.5813
▁relocated	-12.5813
▁renowned	-12.5813
▁repetitive	-12.5813
▁sanitary	-12.5813
▁sarah	-12.5813
▁scrap	-12.5813
▁scribble	-12.5813
▁selfimprovement	-12.5813
▁selfservice	-12.5813
▁smudge	-12.5813
▁soondae	-12.5813
▁specified	-12.5813
▁spectacular	-12.5813
▁spinach	-12.5813
▁spirit	-12.5813
▁squad	-12.5813
▁stroke	-12.5813
▁substitute	-12.5813
▁sustain	-12.5813
▁swab	-12.5813
▁tastier	-12.5813
▁therefore	-12.5813
▁transform	-12.5813
▁twisted	-12.5813
▁unattended	-12.5813
▁universities	-12.5813
▁unpack	-12.5813
▁unpleasant	-12.5813
▁unplugged	-12.5813
▁ventilation	-12.5813
▁vinyl	-12.5813
▁vocabulary	-12.5813
▁zealand	-12.5813
▁admittance	-12.5813
▁cockroach	-12.5813
▁flip	-12.5813
▁humor	-12.5813
▁instrument	-12.5813
▁layoffs	-12.5813
▁plugged	-12.5813
▁trench	-12.5813
▁desert	-12.5813
▁diving	-12.5813
▁repeatedly	-12.5813
▁softener	-12.5813
▁swam	-12.5813
▁carelessly	-12.5813
▁collar	-12.5813
▁knot	-12.5813
▁occurring	-12.5813
▁rotate	-12.5813
▁virtual	-12.5813
▁android	-12.5813
▁anemia	-12.5813
▁carbon	-12.5813
▁dvd	-12.5813
▁meatball	-12.5813
▁pump	-12.5813
▁securities	-12.5813
▁clapp	-12.5813
▁flesh	-12.5813
▁citr	-12.5813
▁rubens	-12.5813
▁desktop	-12.5813
▁gastro	-12.5813
▁0.5	-12.5813
▁nauseated	-12.5813
▁nominate	-12.5813
▁disconnected	-12.5813
▁shutter	-12.5813
▁accent	-12.5813
▁shortcut	-12.5813
▁crucial	-12.5813
▁authentication	-12.5813
▁flatfish	-12.5813
▁preschool	-12.5813
▁whitening	-12.5813
▁jogging	-12.5813
▁toxic	-12.5813
▁jewelry	-12.5813
▁palette	-12.5813
▁flashlight	-12.5814
▁dramatically	-12.5814
othing	-12.5814
▁seasickness	-12.5814
▁conci	-12.5814
▁carving	-12.5814
▁railway	-12.5814
▁amendment	-12.5814
▁groceries	-12.5814
▁establishment	-12.5814
▁wholesale	-12.5814
▁preview	-12.5814
▁circuit	-12.5814
▁hottest	-12.5814
▁bomb	-12.5814
▁trimming	-12.5814
▁consciousness	-12.5814
▁bride	-12.5814
▁panty	-12.5814
▁entre	-12.5814
▁bummer	-12.5814
▁grandpa	-12.5814
▁sunny	-12.5814
▁leakage	-12.5815
▁foul	-12.5815
▁jane	-12.5815
▁aloe	-12.5815
▁luna	-12.5815
▁toiletries	-12.5815
▁kidding	-12.5815
▁timing	-12.5815
▁grownup	-12.5815
▁stressful	-12.5815
▁repayment	-12.5815
▁everland	-12.5815
▁usim	-12.5816
▁industries	-12.5816
ux	-12.5816
▁seul	-12.5816
▁storyline	-12.5816
▁personalities	-12.5816
▁mature	-12.5816
▁healthier	-12.5816
▁mailbox	-12.5816
▁packet	-12.5816
▁blusher	-12.5816
▁similarities	-12.5816
▁rapidly	-12.5816
▁candies	-12.5816
▁authorized	-12.5817
▁taxfree	-12.5817
▁abilities	-12.5817
▁awareness	-12.5817
▁mala	-12.5819
▁2020	-12.5819
▁withdrawn	-12.582
▁removal	-12.582
procure	-12.582
ronic	-12.582
▁fade	-12.582
▁withdrawal	-12.5821
▁tale	-12.5821
▁legit	-12.5822
▁hangang	-12.5822
zel	-12.5822
▁handover	-12.5822
▁medal	-12.5823
seum	-12.5823
▁interviewee	-12.5824
▁sip	-12.5827
▁fluently	-12.5827
▁intent	-12.5829
▁bumper	-12.5829
▁emp	-12.583
▁disposal	-12.583
shot	-12.583
▁jumper	-12.5831
▁cannes	-12.5832
▁gosh	-12.5833
▁cass	-12.5836
▁influencer	-12.5837
▁shortage	-12.5837
chon	-12.5838
▁teamwork	-12.5844
harg	-12.5847
▁lowf	-12.5853
ngers	-12.5861
▁dancer	-12.5862
▁indicate	-12.5872
consum	-12.5877
▁midsize	-12.5902
▁hon	-12.5921
▁mc	-12.5997
wise	-12.6043
can	-12.6097
ept	-12.615
400	-12.6242
▁slippe	-12.6326
added	-12.6504
position	-12.6551
13	-12.6611
ddy	-12.6643
▁var	-12.6742
aving	-12.6778
ption	-12.6858
▁trac	-12.6886
▁featur	-12.6969
▁prim	-12.6975
lute	-12.7099
ngest	-12.7118
▁specializ	-12.7251
▁distincti	-12.7285
7,000	-12.7293
2,000	-12.7521
▁ev	-12.7585
▁attraction	-12.7615
▁requirement	-12.7616
▁rib	-12.7619
▁congratulation	-12.7621
looking	-12.7648
▁troubl	-12.7658
hill	-12.7712
▁swi	-12.7749
grams	-12.7766
pcs	-12.7767
▁refresh	-12.7772
▁achiev	-12.7788
▁complet	-12.7793
jected	-12.7796
▁vale	-12.7798
▁preserv	-12.78
▁nation	-12.7801
standing	-12.7806
▁reasonabl	-12.7807
food	-12.7807
▁pray	-12.7807
efficient	-12.7807
sharing	-12.7807
perform	-12.7807
identification	-12.7807
wave	-12.7807
after	-12.7807
▁absolute	-12.7808
▁hamburg	-12.7809
▁warrant	-12.7809
eye	-12.7809
▁blush	-12.7809
close	-12.781
▁physi	-12.7811
▁commun	-12.7813
lumni	-12.7813
▁handicap	-12.7813
▁broad	-12.7813
▁categori	-12.7813
▁voluntar	-12.7813
▁rack	-12.7813
istics	-12.7813
nstru	-12.7813
▁diploma	-12.7813
▁blueberry	-12.7813
▁disassembl	-12.7813
▁dumbbell	-12.7813
▁overflow	-12.7813
▁prequel	-12.7813
▁provision	-12.7813
▁systematic	-12.7813
piracy	-12.7813
▁01012345678	-12.7813
▁acknowledg	-12.7813
▁admirable	-12.7813
▁airbnb	-12.7813
▁anesthesia	-12.7813
▁anthelmintic	-12.7813
▁anxious	-12.7813
▁apron	-12.7813
▁aqua	-12.7813
▁arbitrar	-12.7813
▁ashtray	-12.7813
▁assault	-12.7813
▁bazaar	-12.7813
▁bodies	-12.7813
▁botox	-12.7813
▁buttock	-12.7813
▁cannabis	-12.7813
▁capsule	-12.7813
▁caravaggio	-12.7813
▁catholic	-12.7813
▁ceremonies	-12.7813
▁christian	-12.7813
▁coconut	-12.7813
▁coincide	-12.7813
▁commence	-12.7813
▁committe	-12.7813
▁confess	-12.7813
▁congestion	-12.7813
▁consumable	-12.7813
▁contagious	-12.7813
▁cooperative	-12.7813
▁corvina	-12.7813
▁crunch	-12.7813
▁cumbersome	-12.7813
▁curriculum	-12.7813
▁cutlery	-12.7813
▁demolition	-12.7813
▁depreciation	-12.7813
▁depression	-12.7813
▁diabetes	-12.7813
▁disrupt	-12.7813
▁dissertation	-12.7813
▁edible	-12.7813
▁elders	-12.7813
▁emoticon	-12.7813
▁endoscop	-12.7813
▁energize	-12.7813
▁etiquette	-12.7813
▁ghost	-12.7813
▁gloomy	-12.7813
▁gorgonzola	-12.7813
▁granddaughter	-12.7813
▁gross	-12.7813
▁hacked	-12.7813
▁hepatitis	-12.7813
▁implicit	-12.7813
▁ineffective	-12.7813
▁infringement	-12.7813
▁injuries	-12.7813
▁intermittent	-12.7813
▁intravenous	-12.7813
▁irritation	-12.7813
▁jinhae	-12.7813
▁journey	-12.7813
▁kalguksu	-12.7813
▁klimt	-12.7813
▁lactose	-12.7813
▁lavender	-12.7813
▁limitededition	-12.7813
▁liniment	-12.7813
▁manuscript	-12.7813
▁mike	-12.7813
▁milkshake	-12.7813
▁minji	-12.7813
▁motorbike	-12.7813
▁mushy	-12.7813
▁negotiating	-12.7813
▁netflix	-12.7813
▁nevertheless	-12.7813
▁numerous	-12.7813
▁opportunities	-12.7813
▁ornament	-12.7813
▁overheated	-12.7813
▁peaceful	-12.7813
▁persimmon	-12.7813
▁plaza	-12.7813
▁pohang	-12.7813
▁ponytail	-12.7813
▁portfolio	-12.7813
▁prawns	-12.7813
▁predecessor	-12.7813
▁prejudice	-12.7813
▁province	-12.7813
▁punishment	-12.7813
▁reckless	-12.7813
▁reissuing	-12.7813
▁robbed	-12.7813
▁roundabout	-12.7813
▁scenario	-12.7813
▁scheme	-12.7813
▁scope	-12.7813
▁scrub	-12.7813
▁sesame	-12.7813
▁simplif	-12.7813
▁simulation	-12.7813
▁sneezing	-12.7813
▁spicier	-12.7813
▁squash	-12.7813
▁staircase	-12.7813
▁suicide	-12.7813
▁sydney	-12.7813
▁symbol	-12.7813
▁tastiest	-12.7813
▁technique	-12.7813
▁thermometer	-12.7813
▁thermos	-12.7813
▁throbbing	-12.7813
▁tiresome	-12.7813
▁tylenol	-12.7813
▁ulsan	-12.7813
▁unfavorabl	-12.7813
▁unlucky	-12.7813
▁unnatural	-12.7813
▁unnecessary	-12.7813
▁unpopular	-12.7813
▁updating	-12.7813
▁vaccinated	-12.7813
▁vaccine	-12.7813
▁vibrate	-12.7813
▁vicinity	-12.7813
▁violating	-12.7813
▁vulnerable	-12.7813
▁wellknown	-12.7813
▁witnesse	-12.7813
▁wristband	-12.7813
▁yacht	-12.7813
▁yeouido	-12.7813
▁yourselves	-12.7813
dynamic	-12.7813
▁calf	-12.7813
▁commemorati	-12.7813
▁diversif	-12.7813
▁flier	-12.7813
▁librari	-12.7813
▁ophthalmolog	-12.7813
▁steep	-12.7813
▁thrill	-12.7813
▁vase	-12.7813
▁drastic	-12.7813
▁freak	-12.7813
▁inflow	-12.7813
▁downward	-12.7813
▁ilsan	-12.7813
▁insane	-12.7813
▁evidentia	-12.7813
▁greedy	-12.7813
▁anchor	-12.7813
▁batch	-12.7813
▁escape	-12.7813
▁textile	-12.7813
▁winner	-12.7813
▁encounter	-12.7813
▁reddish	-12.7813
▁miles	-12.7813
▁crush	-12.7813
▁hinder	-12.7813
▁gossip	-12.7813
▁offended	-12.7813
▁stance	-12.7813
genic	-12.7813
▁bushy	-12.7813
▁panda	-12.7813
▁crackdown	-12.7813
▁vital	-12.7813
▁fortress	-12.7813
▁induction	-12.7813
▁shopper	-12.7813
▁purse	-12.7813
▁exposure	-12.7813
▁shelve	-12.7813
▁lisa	-12.7814
▁jet	-12.7814
▁proofread	-12.7814
▁immun	-12.7814
▁saint	-12.7814
▁surge	-12.7814
▁lightning	-12.7814
▁discover	-12.7814
▁trimmed	-12.7814
▁accomplishment	-12.7814
▁portland	-12.7814
actic	-12.7814
▁illustrator	-12.7814
▁pharmacies	-12.7814
▁backseat	-12.7814
▁arise	-12.7814
imagin	-12.7814
osis	-12.7814
▁fluctuation	-12.7814
▁irrelevant	-12.7814
biza	-12.7814
▁dump	-12.7814
▁preschoolers	-12.7814
antiag	-12.7814
▁forearm	-12.7814
▁multiroom	-12.7814
▁nagging	-12.7814
▁ballet	-12.7814
▁slipping	-12.7815
▁guesthouse	-12.7815
▁fear	-12.7815
▁tram	-12.7815
▁lowprice	-12.7815
▁freelancer	-12.7815
▁happier	-12.7815
▁ebook	-12.7815
▁chipped	-12.7815
▁bora	-12.7815
▁prepped	-12.7815
▁fool	-12.7815
▁dope	-12.7815
▁cancer	-12.7816
permanent	-12.7816
▁brace	-12.7816
▁butcher	-12.7816
▁eighth	-12.7816
▁smokers	-12.7816
deok	-12.7816
▁hmm	-12.7817
▁noticing	-12.7817
flu	-12.7817
rcul	-12.7817
▁race	-12.7817
▁validity	-12.7817
▁bali	-12.7817
▁mended	-12.7817
▁1230	-12.7818
iliar	-12.7819
▁crap	-12.7819
▁shredder	-12.782
▁bunches	-12.782
▁footage	-12.782
▁insight	-12.7821
▁editor	-12.7821
▁diner	-12.7822
otic	-12.7822
▁247	-12.7823
▁adopt	-12.7823
▁pale	-12.7823
▁considerate	-12.7823
imate	-12.7823
▁discriminati	-12.7825
▁nav	-12.7825
ridden	-12.7854
illion	-12.7862
competent	-12.7866
▁enforce	-12.7882
▁expe	-12.795
ewing	-12.7968
▁naturallook	-12.7975
▁mutual	-12.7979
ada	-12.8009
pending	-12.8022
▁intensi	-12.8069
▁tab	-12.8074
▁gig	-12.8137
dilute	-12.8178
chul	-12.8195
▁emphasiz	-12.8307
▁raci	-12.8461
▁auditor	-12.8511
▁controversi	-12.8514
▁largesize	-12.8787
▁retir	-12.8913
▁retr	-12.8922
rging	-12.9001
oda	-12.9004
▁ki	-12.9168
▁assembl	-12.9389
▁measur	-12.9421
ership	-12.9473
▁enhanc	-12.9587
ppl	-12.9842
▁fulfill	-12.9879
▁figur	-12.9887
handed	-13.0016
▁appliance	-13.0111
▁aspect	-13.0111
▁headphone	-13.0111
▁artifact	-13.0113
▁statistic	-13.0113
▁euro	-13.0114
▁affair	-13.0115
▁subtitle	-13.0123
warming	-13.0216
filled	-13.0272
sistance	-13.0278
▁calculat	-13.0284
▁remodel	-13.0284
piece	-13.0285
▁wander	-13.0285
▁propos	-13.029
kim	-13.0292
weight	-13.0299
▁appoint	-13.0299
▁reject	-13.03
▁moisturize	-13.0306
▁blond	-13.0306
abilities	-13.0307
foam	-13.0307
pepper	-13.0307
throat	-13.0307
anniversary	-13.0307
build	-13.0307
portion	-13.0307
purpose	-13.0307
fault	-13.0307
bottle	-13.0307
development	-13.0307
alcohol	-13.0307
bank	-13.0307
location	-13.0307
china	-13.0307
face	-13.0308
▁rapid	-13.0308
▁heavi	-13.0308
conditioner	-13.0309
▁counterpart	-13.0309
▁happie	-13.0311
▁freelance	-13.0311
▁festiv	-13.0311
stood	-13.0311
▁fluctuat	-13.0312
▁demonstrat	-13.0312
▁explanat	-13.0312
▁embarras	-13.0312
affle	-13.0313
▁seasick	-13.0313
▁journal	-13.0313
▁jewel	-13.0313
▁exemp	-13.0313
▁nausea	-13.0313
▁succ	-13.0313
▁contaminat	-13.0313
▁cumulat	-13.0313
▁qualify	-13.0313
▁consensu	-13.0313
▁leaf	-13.0313
▁quota	-13.0313
▁reassur	-13.0313
comefirstserve	-13.0313
ficiency	-13.0313
hearted	-13.0313
inlaw	-13.0313
journ	-13.0313
quisite	-13.0313
selfintroduction	-13.0313
▁activate	-13.0313
▁airfare	-13.0313
▁aladdin	-13.0313
▁algorithm	-13.0313
▁antibacteria	-13.0313
▁anticipate	-13.0313
▁arcade	-13.0313
▁architecture	-13.0313
▁armpit	-13.0313
▁barcelona	-13.0313
▁bathrobe	-13.0313
▁bedsheets	-13.0313
▁benchmark	-13.0313
▁booze	-13.0313
▁border	-13.0313
▁calves	-13.0313
▁captain	-13.0313
▁carbonara	-13.0313
▁carpet	-13.0313
▁cartridge	-13.0313
▁casino	-13.0313
▁cavity	-13.0313
▁celebs	-13.0313
▁chaeah	-13.0313
▁chamber	-13.0313
▁championship	-13.0313
▁cherries	-13.0313
▁cherryade	-13.0313
▁choreography	-13.0313
▁chubby	-13.0313
▁coincidence	-13.0313
▁collaborate	-13.0313
▁comparison	-13.0313
▁condolence	-13.0313
▁constipants	-13.0313
▁convince	-13.0313
▁counterfeit	-13.0313
▁couscous	-13.0313
▁crayons	-13.0313
▁creativity	-13.0313
▁creepy	-13.0313
▁crib	-13.0313
▁crisis	-13.0313
▁crop	-13.0313
▁crown	-13.0313
▁decreasing	-13.0313
▁denied	-13.0313
▁devote	-13.0313
▁dhl	-13.0313
▁diagonally	-13.0313
▁dictionary	-13.0313
▁dimension	-13.0313
▁discoloration	-13.0313
▁displeased	-13.0313
▁embezzlement	-13.0313
▁emcee	-13.0313
▁encore	-13.0313
▁espresso	-13.0313
▁explor	-13.0313
▁eyedrops	-13.0313
▁feedstuff	-13.0313
▁flattered	-13.0313
▁flickering	-13.0313
▁forbidden	-13.0313
▁fossil	-13.0313
▁francisco	-13.0313
▁fraud	-13.0313
▁frizzy	-13.0313
▁furious	-13.0313
▁grandparents	-13.0313
▁gyeonggido	-13.0313
▁haenyeo	-13.0313
▁halibut	-13.0313
▁happily	-13.0313
▁hawaii	-13.0313
▁heaven	-13.0313
▁helicopter	-13.0313
▁hitandrun	-13.0313
▁homebaking	-13.0313
▁homestay	-13.0313
▁horseriding	-13.0313
▁housekeeping	-13.0313
▁hydrating	-13.0313
▁identified	-13.0313
▁inbetween	-13.0313
▁infirmary	-13.0313
▁infrastructure	-13.0313
▁irregular	-13.0313
▁jaywalk	-13.0313
▁jjajangmyeon	-13.0313
▁jungangdong	-13.0313
▁kakaotalk	-13.0313
▁kimbab	-13.0313
▁lamborghini	-13.0313
▁leggings	-13.0313
▁literacy	-13.0313
▁macau	-13.0313
▁macbook	-13.0313
▁malaysia	-13.0313
▁medusa	-13.0313
▁melody	-13.0313
▁mercedesbenz	-13.0313
▁miracle	-13.0313
▁misunderstood	-13.0313
▁mocha	-13.0313
▁module	-13.0313
▁mokpo	-13.0313
▁nacho	-13.0313
▁nepal	-13.0313
▁netherlands	-13.0313
▁nike	-13.0313
▁nonetheless	-13.0313
▁occupation	-13.0313
▁optician	-13.0313
▁overwhelmed	-13.0313
▁parlors	-13.0313
▁perpetrator	-13.0313
▁persuade	-13.0313
▁petersburg	-13.0313
▁phillippines	-13.0313
▁photoshop	-13.0313
▁pigmentation	-13.0313
▁platter	-13.0313
▁poisonous	-13.0313
▁polite	-13.0313
▁politicians	-13.0313
▁preapprov	-13.0313
▁preengagement	-13.0313
▁prettiest	-13.0313
▁prince	-13.0313
▁probability	-13.0313
▁procrastinat	-13.0313
▁profusely	-13.0313
▁pronto	-13.0313
▁pronunciation	-13.0313
▁psychological	-13.0313
▁puppies	-13.0313
▁reattach	-13.0313
▁reckon	-13.0313
▁reconsider	-13.0313
▁recycling	-13.0313
▁reheat	-13.0313
▁relapse	-13.0313
▁reluctant	-13.0313
▁renovate	-13.0313
▁replenish	-13.0313
▁reruns	-13.0313
▁rollercoaster	-13.0313
▁scallop	-13.0313
▁scones	-13.0313
▁scrumptious	-13.0313
▁sejong	-13.0313
▁selforder	-13.0313
▁semiconductor	-13.0313
▁shabushabu	-13.0313
▁shelter	-13.0313
▁sherlock	-13.0313
▁silk	-13.0313
▁sitcom	-13.0313
▁skeptical	-13.0313
▁sketch	-13.0313
▁sloppy	-13.0313
▁smith	-13.0313
▁sneeze	-13.0313
▁soggy	-13.0313
▁steroid	-13.0313
▁stinks	-13.0313
▁stirfry	-13.0313
▁subordinate	-13.0313
▁subsidiary	-13.0313
▁tilted	-13.0313
▁toothache	-13.0313
▁toronto	-13.0313
▁tremendous	-13.0313
▁trigger	-13.0313
▁turtle	-13.0313
▁twelve	-13.0313
▁twitter	-13.0313
▁twostoried	-13.0313
▁umpire	-13.0313
▁unbearable	-13.0313
▁uncertain	-13.0313
▁unconditional	-13.0313
▁unhealthy	-13.0313
▁unrealistic	-13.0313
▁vatican	-13.0313
▁violence	-13.0313
▁worthwhile	-13.0313
▁yolk	-13.0313
▁yosemite	-13.0313
▁zombie	-13.0313
▁concession	-13.0313
▁daehan	-13.0313
▁hardcover	-13.0313
▁notorious	-13.0313
▁onwards	-13.0313
▁reenter	-13.0313
▁tray	-13.0313
parasite	-13.0313
▁comprehension	-13.0313
▁cubes	-13.0313
▁dishwashing	-13.0313
▁hangeul	-13.0313
▁malatang	-13.0313
▁periodically	-13.0313
▁sonata	-13.0313
▁turk	-13.0313
▁urinat	-13.0313
▁compact	-13.0313
▁topper	-13.0313
▁bloggers	-13.0313
▁dramatic	-13.0313
aneous	-13.0313
hansan	-13.0313
parag	-13.0313
▁differentiation	-13.0313
▁awake	-13.0313
▁motive	-13.0313
▁offense	-13.0313
▁partake	-13.0313
▁respondents	-13.0313
▁entic	-13.0313
▁piping	-13.0313
▁stability	-13.0313
tolerant	-13.0313
▁convey	-13.0313
▁weapon	-13.0313
▁kaya	-13.0313
▁masterpiece	-13.0313
theart	-13.0313
▁retreat	-13.0313
▁atopy	-13.0313
▁dissatisfied	-13.0313
▁compell	-13.0313
▁sheep	-13.0313
guration	-13.0313
▁bmw	-13.0313
▁grant	-13.0313
▁stylist	-13.0313
▁kdrama	-13.0313
▁jellyfish	-13.0313
▁broadway	-13.0314
▁capabilities	-13.0314
▁permitted	-13.0314
▁remitted	-13.0314
▁gogh	-13.0314
▁polar	-13.0314
▁criticism	-13.0314
▁tension	-13.0314
▁shortcomings	-13.0314
▁travelsize	-13.0314
▁hunt	-13.0314
▁monet	-13.0314
romatic	-13.0314
▁journalist	-13.0314
assurance	-13.0314
▁wristwatch	-13.0314
▁trop	-13.0314
scale	-13.0314
▁wiping	-13.0314
▁splash	-13.0314
prison	-13.0314
▁sponsorship	-13.0314
licious	-13.0314
▁laos	-13.0314
▁mindset	-13.0314
▁authorities	-13.0314
▁restart	-13.0314
▁devi	-13.0315
▁housewi	-13.0315
▁circulate	-13.0315
▁compli	-13.0317
▁bikin	-13.0327
hood	-13.0332
▁stabb	-13.0346
anning	-13.0387
▁horizontal	-13.0464
▁exaggerat	-13.0552
▁kingsize	-13.0636
600	-13.0719
gwa	-13.0802
rify	-13.0928
block	-13.1754
▁basi	-13.1828
unblock	-13.1926
ngwoo	-13.2
▁secur	-13.2003
