<pad>	0
<unk>	0
<s>	0
</s>	0
.	-2.87956
▁	-3.46812
?	-3.6964
,	-3.74398
을	-4.11104
가	-4.23973
를	-4.48935
이	-4.49574
는	-4.51458
은	-4.66487
도	-4.8018
에	-4.82096
▁수	-4.95037
▁것	-5.06011
로	-5.3496
▁네	-5.44975
요	-5.48262
지	-5.48834
▁안	-5.49145
의	-5.53427
고	-5.61102
으로	-5.62021
▁이	-5.73605
만	-5.74591
▁제가	-5.76104
▁있는	-5.82425
서	-5.87476
에서	-5.90555
▁그럼	-5.9208
▁한	-5.92571
한	-5.93801
▁너무	-5.94201
▁지금	-5.96537
▁더	-5.97343
▁있나요	-6.0356
▁잘	-6.09667
▁거	-6.13459
▁게	-6.13568
할	-6.16363
나	-6.16448
▁오늘	-6.1656
▁좀	-6.16748
▁혹시	-6.17027
▁있습니다	-6.18902
▁우리	-6.19418
면	-6.20148
게	-6.21205
▁그	-6.22139
▁다	-6.241
하고	-6.26013
▁많이	-6.31285
▁저희	-6.31784
▁다른	-6.33601
▁할	-6.3475
▁어떻게	-6.35068
▁정말	-6.3714
하는	-6.38682
과	-6.39822
해서	-6.40512
히	-6.42953
해	-6.43162
야	-6.45192
▁여기	-6.47595
▁2	-6.54639
▁못	-6.556
▁1	-6.58058
▁어떤	-6.58229
▁있어요	-6.58721
기	-6.59709
입니다	-6.60005
▁건	-6.60097
▁바로	-6.63077
▁같아요	-6.6346
인	-6.63687
▁이번	-6.69223
▁때	-6.70021
▁하는데	-6.70596
시	-6.71009
▁하는	-6.71067
▁있는데	-6.71106
▁같아	-6.71481
▁제	-6.7253
▁3	-6.73753
▁건가요	-6.74044
▁됩니다	-6.74252
▁정도	-6.74814
와	-6.75382
어	-6.75797
▁다시	-6.7671
까지	-6.78537
인데	-6.78964
분	-6.79357
▁내가	-6.80072
▁몇	-6.80262
▁주	-6.82963
▁제품	-6.8454
리	-6.84724
▁회사	-6.85051
▁버스	-6.85093
▁같이	-6.86003
일	-6.86832
▁해	-6.86995
도록	-6.87694
▁합니다	-6.87756
▁저는	-6.90347
▁조금	-6.91083
▁일	-6.91255
▁같은데	-6.92085
▁사	-6.9231
▁다음	-6.93002
▁시간	-6.93353
▁거야	-6.94288
상	-6.94405
▁얼마	-6.94445
네요	-6.9522
▁나는	-6.95239
▁예약	-6.96163
다	-6.97708
▁그러면	-6.98134
는데	-6.98279
해야	-6.98562
▁하나	-6.99075
▁있을까요	-6.99294
자	-7.00519
하면	-7.02086
▁주문	-7.02748
▁나	-7.03303
하	-7.05084
▁번	-7.05443
▁싶은데	-7.06588
▁그렇게	-7.07441
▁내일	-7.08099
▁확인	-7.08349
▁두	-7.08478
▁내	-7.08604
▁10	-7.08759
주	-7.08837
▁거예요	-7.09256
니	-7.0928
▁때문에	-7.09677
▁되나요	-7.1004
▁좋은	-7.10424
대	-7.10504
된	-7.10742
▁아직	-7.12155
랑	-7.12404
▁전에	-7.13391
▁5	-7.13495
▁가는	-7.13507
▁저	-7.14435
▁있어	-7.14676
▁오	-7.15466
다고	-7.15549
▁이번에	-7.16799
장	-7.16821
▁따로	-7.17127
▁주세요	-7.18365
러	-7.18407
▁하나요	-7.18817
▁말	-7.1895
에는	-7.19015
실	-7.19262
▁왜	-7.19324
합니다	-7.1944
▁그런	-7.19937
▁될까요	-7.20778
▁가	-7.21295
▁줄	-7.21349
▁있어서	-7.21817
▁생각	-7.22301
▁해야	-7.2274
▁그래도	-7.22993
▁하고	-7.23312
▁시간이	-7.2336
▁같습니다	-7.24106
던	-7.24648
▁나도	-7.25521
▁문제	-7.25693
인가요	-7.2703
!	-7.288
부터	-7.29268
라	-7.29546
▁어제	-7.29622
하지	-7.29684
▁추가	-7.30019
신	-7.3011
▁전화	-7.31248
나요	-7.31635
▁이렇게	-7.31681
▁걸	-7.31842
▁그냥	-7.32021
▁결제	-7.32116
▁있을	-7.32852
니까	-7.33209
▁아	-7.3367
▁상품	-7.3465
▁가장	-7.35253
▁음식	-7.36703
개	-7.37141
사	-7.37566
하게	-7.37925
▁새로	-7.38509
▁가서	-7.38726
습니다	-7.3922
▁차	-7.39728
▁하지만	-7.40206
운	-7.40601
▁사용	-7.40778
죠	-7.41435
▁회의	-7.41597
▁전	-7.42001
네	-7.42041
원	-7.42845
▁갈	-7.4296
▁같은	-7.43796
시면	-7.44342
▁될	-7.44492
긴	-7.44833
▁보고	-7.44944
데	-7.44956
▁해요	-7.44978
▁죄송하지만	-7.46044
▁개	-7.46379
▁알	-7.46426
▁4	-7.46958
보다	-7.47477
▁테니	-7.47992
▁무슨	-7.48142
▁준비	-7.48149
들	-7.4832
▁여기서	-7.48709
▁너	-7.48883
이라	-7.49073
▁아무	-7.49727
▁먼저	-7.50016
▁감사합니다	-7.50166
▁빨리	-7.50692
▁한번	-7.50967
▁사진	-7.5237
▁구매	-7.52985
▁가야	-7.53252
▁해서	-7.53341
▁출장	-7.53664
▁카드	-7.54615
들이	-7.54635
진	-7.54659
▁모	-7.55022
으면	-7.55036
명	-7.5509
▁여행	-7.55216
▁연락	-7.55316
▁처음	-7.55371
▁보	-7.56114
▁약	-7.56361
▁뭐	-7.56601
스	-7.56837
시간	-7.571
▁했는데	-7.57686
▁꼭	-7.57748
▁정	-7.58077
보	-7.58135
▁하	-7.58168
▁큰	-7.58281
▁달	-7.58771
번	-7.58975
▁응	-7.59007
▁이용	-7.5942
겠습니다	-7.59595
▁원	-7.59886
▁중	-7.60151
▁죄송합니다	-7.60228
▁30	-7.60513
치	-7.60978
▁자리	-7.61101
이랑	-7.61309
▁이미	-7.61612
수	-7.61857
▁알고	-7.61874
▁그런데	-7.62173
▁그렇다면	-7.62214
▁되는	-7.62644
▁할인	-7.62823
세요	-7.62992
▁하겠습니다	-7.63176
하기	-7.63414
해주세요	-7.63569
주세요	-7.63832
▁모두	-7.64079
▁후	-7.6453
라고	-7.6472
용	-7.64849
▁배송	-7.6584
▁타	-7.65846
▁가능합니다	-7.66907
▁데	-7.6695
▁시	-7.66963
▁하면	-7.6711
▁저도	-7.67333
▁요즘	-7.68251
▁운동	-7.68764
▁타고	-7.69372
하실	-7.69492
▁일단	-7.69561
▁말고	-7.69592
▁살	-7.70132
▁있으니	-7.70347
정	-7.72424
▁사람이	-7.72931
▁가면	-7.73011
부	-7.74005
▁마	-7.74209
이나	-7.74421
▁지	-7.7497
까	-7.74997
어요	-7.75303
▁되	-7.75607
▁아니요	-7.75779
▁없습니다	-7.76139
▁함께	-7.76271
▁난	-7.76403
▁좋을	-7.76495
▁봐	-7.77307
대로	-7.77427
▁미리	-7.77927
▁언제	-7.77989
▁계속	-7.78044
하시면	-7.78218
▁포장	-7.78606
▁것이	-7.78857
▁그래	-7.79452
▁알겠습니다	-7.79735
▁일이	-7.79979
▁곳	-7.80075
▁먹고	-7.80136
▁분	-7.80251
▁있으면	-7.8099
▁어느	-7.81131
▁택시	-7.8217
▁제일	-7.82367
드	-7.82431
▁머리	-7.82524
▁이제	-7.83029
▁어디	-7.83176
▁아까	-7.83627
년	-7.83905
▁없는	-7.84121
▁드릴게요	-7.84592
▁잘못	-7.84888
했는데	-7.85117
▁많은	-7.85174
▁아니	-7.85189
▁사람	-7.8521
▁총	-7.85512
▁영화	-7.85679
아	-7.86052
▁필요	-7.86167
▁길	-7.863
▁부	-7.86344
▁온	-7.8645
▁대	-7.86486
▁가능한가	-7.86776
▁비	-7.86804
질	-7.86928
▁이상	-7.86978
▁배	-7.86987
▁친구	-7.87162
▁가지고	-7.87315
▁고객님	-7.87414
비	-7.88069
든	-7.8824
▁좋아	-7.88764
▁아마	-7.892
▁7	-7.89397
층	-7.89703
▁환불	-7.89846
▁또	-7.89847
▁옷	-7.89877
▁그렇군요	-7.89989
▁하지	-7.9005
시에	-7.90238
▁판매	-7.9033
▁업무	-7.90725
▁있는지	-7.90966
▁이런	-7.9106
이에요	-7.91253
▁가격	-7.91635
▁아니라	-7.91782
▁현재	-7.9182
▁호텔	-7.92198
▁6	-7.92245
▁취소	-7.92635
▁사이즈	-7.92684
▁없는데	-7.92769
트	-7.9341
에게	-7.93665
▁건데	-7.93685
▁식사	-7.93917
▁진행	-7.94126
▁작성	-7.94179
려고	-7.94304
▁오래	-7.94363
▁신청	-7.94834
▁후에	-7.95183
▁자	-7.95458
▁싶어요	-7.95626
▁시작	-7.96076
▁사고	-7.96197
▁저녁	-7.96717
▁변경	-7.96816
하겠습니다	-7.9687
▁있다고	-7.96903
▁방	-7.96945
▁적	-7.97329
하신	-7.97666
▁별로	-7.97807
단	-7.97836
▁텐데	-7.98103
▁수도	-7.98425
▁직접	-7.98608
▁안녕하세요	-7.99048
▁중에	-7.99329
▁비행기	-7.99349
▁계산	-7.99364
▁없나요	-7.99582
▁신	-7.9964
했습니다	-7.99807
▁구	-7.99832
▁메뉴	-8.00117
당	-8.00165
▁그건	-8.00693
▁방문	-8.0114
제	-8.01498
▁들어가	-8.0176
▁지하철	-8.0184
▁많아서	-8.02097
▁바	-8.02377
지만	-8.02449
▁처리	-8.02815
▁않	-8.02842
▁것도	-8.02896
▁돼요	-8.0298
▁먹	-8.03176
이라고	-8.03343
화	-8.03483
▁볼	-8.03629
까요	-8.04106
▁저기	-8.04116
▁일정	-8.0417
▁거로	-8.04209
한테	-8.04276
▁동안	-8.04376
▁알려	-8.04406
▁선물	-8.04882
▁마음	-8.05144
▁확인해	-8.05512
차	-8.05734
▁안에	-8.05917
▁8	-8.0641
▁20	-8.06527
▁곳이	-8.0672
▁물	-8.06989
▁인기	-8.07217
▁없어서	-8.07412
▁앞에	-8.07423
▁받을	-8.07598
▁커피	-8.07801
▁물건	-8.07854
월	-8.07953
▁영수증	-8.07987
▁집에	-8.08003
▁원래	-8.08134
▁세	-8.08201
구	-8.08212
▁아이	-8.08506
▁올	-8.08706
다가	-8.08799
▁방법	-8.0902
▁보내	-8.09351
려	-8.09427
▁본	-8.09506
▁그래서	-8.09657
▁좋	-8.09742
▁된	-8.09817
군요	-8.10176
▁어디에	-8.10788
소	-8.10812
▁장	-8.10915
▁없	-8.11122
점	-8.11133
▁없어요	-8.11167
▁환전	-8.11699
▁아주	-8.1191
▁갑자기	-8.12228
▁오후	-8.12734
인지	-8.12852
▁거죠	-8.12922
가요	-8.13155
다는	-8.13286
됩니다	-8.13716
하려고	-8.13759
▁맞아	-8.13837
▁가지	-8.14108
▁시험	-8.14203
▁진짜	-8.14262
▁안내	-8.14409
되어	-8.14453
▁겁니다	-8.14518
▁저번에	-8.14548
▁경우	-8.14598
▁않아	-8.1483
▁날	-8.14967
셔야	-8.15125
▁가방	-8.15191
▁우선	-8.15303
▁따라	-8.16037
▁한데	-8.16299
▁교환	-8.1638
▁바랍니다	-8.16598
▁앞으로	-8.16601
라도	-8.17166
▁나온	-8.17166
▁없어	-8.17202
▁어디로	-8.17795
▁보니	-8.17806
전	-8.17849
다니	-8.18025
▁부분	-8.18038
들은	-8.18097
▁소	-8.18116
▁날짜	-8.1819
▁어때	-8.18306
▁먹을	-8.1833
▁가격이	-8.18926
관	-8.19267
▁되어	-8.19466
어서	-8.19704
었는데	-8.19732
▁부탁드립니다	-8.19808
▁항	-8.19834
▁학교	-8.20087
▁있고	-8.20347
했던	-8.20353
하시는	-8.20495
식	-8.20595
▁같네요	-8.20674
▁자료	-8.20818
▁계약	-8.20927
▁요리	-8.21219
▁벌써	-8.21445
▁유	-8.21565
▁필요한	-8.21598
▁도착	-8.22088
▁있지	-8.22232
▁9	-8.22663
▁새	-8.2279
래도	-8.22855
▁조금만	-8.22914
▁팀	-8.23901
▁가능한	-8.23947
▁때는	-8.25154
▁대한	-8.25293
던데	-8.25443
▁책	-8.25451
▁대신	-8.25488
▁집	-8.2556
▁돼	-8.25616
▁말씀	-8.25641
하세요	-8.25915
▁편	-8.26113
▁가시면	-8.26262
워	-8.26268
간	-8.2683
▁드릴	-8.26898
구나	-8.27123
▁싶습니다	-8.2715
▁힘들	-8.27163
래	-8.27174
선	-8.27246
드릴게요	-8.27524
▁자주	-8.27537
라서	-8.27563
잖아	-8.27596
게요	-8.28136
▁간	-8.28236
▁지원	-8.28264
▁종류	-8.28298
▁무료	-8.28308
▁드리겠습니다	-8.28374
▁들어	-8.28435
시는	-8.2849
▁사실	-8.28597
되는	-8.28653
▁무	-8.28661
밖에	-8.28733
▁아침	-8.28836
▁산	-8.29158
▁와서	-8.29307
물	-8.29313
▁그리고	-8.2955
▁어	-8.29674
▁최대한	-8.29868
적인	-8.29925
▁할게요	-8.30013
적으로	-8.30268
이라서	-8.30417
성	-8.30566
▁주시면	-8.3062
▁입	-8.30639
▁세트	-8.30643
이야	-8.30674
▁전부	-8.30776
▁와	-8.30795
▁관련	-8.31107
▁인	-8.31145
▁왔는데	-8.3125
▁컴퓨터	-8.31293
시나요	-8.31642
▁표	-8.31785
▁찍어	-8.32048
▁명	-8.32069
▁이유	-8.32199
방	-8.32234
▁상	-8.32269
▁맛있	-8.32687
▁너는	-8.32915
금	-8.32916
▁미	-8.33472
▁않고	-8.3363
▁발표	-8.33774
▁번호	-8.33793
▁같은데요	-8.3396
▁그게	-8.34182
▁오전	-8.34281
▁일찍	-8.34388
지는	-8.34665
▁점심	-8.35218
동	-8.3523
▁신고	-8.35261
니다	-8.35265
▁먹는	-8.35304
기는	-8.35337
했어요	-8.35421
될	-8.35437
▁서류	-8.35505
▁돈	-8.35575
행	-8.35629
▁행사	-8.35651
▁장소	-8.35691
▁않습니다	-8.35733
▁직원	-8.35834
층에	-8.36013
▁짐	-8.36182
거	-8.36221
▁보면	-8.36466
▁수업	-8.36485
▁제품이	-8.36543
▁나서	-8.36654
▁남	-8.36747
▁서비스	-8.36771
마다	-8.36913
▁광고	-8.36932
▁내용	-8.37001
▁왔	-8.37175
다면	-8.37271
▁부탁	-8.3732
▁아니면	-8.37594
▁방금	-8.37937
▁사람들	-8.37961
▁열	-8.37993
▁잠시만	-8.38026
▁어디서	-8.38061
마	-8.38159
▁그럴	-8.38258
▁않은	-8.38323
▁요청	-8.38404
▁쓰	-8.38429
▁반	-8.38517
▁스	-8.38804
▁옆에	-8.3888
▁그때	-8.38938
▁기	-8.39121
▁음료	-8.39475
▁예	-8.3956
했어	-8.39601
▁배달	-8.3992
▁손님	-8.39965
▁이거	-8.39988
하셔야	-8.40067
으니	-8.40189
으	-8.40199
회	-8.40494
▁찾고	-8.40536
드리겠습니다	-8.40543
약	-8.40756
엔	-8.40799
무	-8.40806
셔서	-8.40868
▁퇴근	-8.4087
▁공	-8.41133
우	-8.41146
▁운전	-8.41164
두	-8.41186
▁여권	-8.41217
조	-8.41609
위	-8.41706
▁맞아요	-8.41762
▁밥	-8.41795
▁가게	-8.42087
▁고	-8.42598
져	-8.42628
▁없이	-8.42784
▁이야기	-8.42938
▁공연	-8.43126
더라	-8.43675
▁공부	-8.43699
▁되지	-8.43744
하여	-8.43751
▁정리	-8.43752
▁한국	-8.44206
▁아니야	-8.44216
▁넣어	-8.44571
▁맞나요	-8.44625
천	-8.44655
했	-8.44873
▁디자인	-8.44893
▁가고	-8.4491
▁설명	-8.45097
▁작은	-8.45197
는지	-8.45384
▁않아서	-8.45646
세	-8.45674
▁주소	-8.45766
▁회사에서	-8.45782
▁여러	-8.45893
▁어쩔	-8.46026
▁선택	-8.46029
▁개인	-8.46138
시까지	-8.46176
▁나오는	-8.46287
들을	-8.46388
집	-8.46389
▁출발	-8.46416
▁매장	-8.46432
▁수가	-8.46744
▁상태	-8.46834
▁먹어	-8.46945
▁뒤에	-8.4708
▁드라마	-8.4709
▁식당	-8.4718
중	-8.47541
▁바꿔	-8.47547
▁앞	-8.47633
겠어요	-8.47718
▁찾아	-8.4789
▁그거	-8.48128
▁있습니까	-8.48165
이고	-8.48247
▁해주세요	-8.48495
▁이건	-8.48756
▁딱	-8.49051
▁않아요	-8.4912
▁단	-8.49282
습니까	-8.49346
▁소리	-8.49402
▁술	-8.49458
▁거기	-8.49494
울	-8.4965
시고	-8.4996
▁보여	-8.50246
더라고요	-8.50292
▁싶어	-8.50832
적	-8.50844
▁건물	-8.51022
▁추천	-8.51053
▁점	-8.51069
석	-8.51455
주시겠어요	-8.51486
▁다음에	-8.51617
▁업체	-8.51673
▁분이	-8.51676
오	-8.51946
▁참	-8.52195
▁발	-8.52379
▁수정	-8.52446
▁무엇	-8.52448
▁적이	-8.52565
▁얘기	-8.52664
되	-8.5272
▁크기	-8.5288
▁꽤	-8.52963
▁있으신가요	-8.52973
▁나가	-8.53078
문	-8.53214
▁불가능	-8.53424
▁추천해	-8.53601
린	-8.53837
본	-8.53878
산	-8.53901
▁들었는데	-8.54116
▁하루	-8.54207
▁보통	-8.54344
학	-8.54392
더니	-8.54436
▁주문한	-8.54484
▁엄마	-8.54487
▁생각해	-8.54604
▁해외	-8.54639
▁청소	-8.54644
▁금액	-8.54673
▁사람들이	-8.54818
기가	-8.54875
▁금방	-8.54885
▁곧	-8.5489
▁주에	-8.54936
▁오는	-8.55099
이면	-8.55253
▁접수	-8.55283
▁받으	-8.55682
▁예정입니다	-8.55715
▁보는	-8.55928
▁영업	-8.56049
▁근데	-8.5605
▁조	-8.56111
▁일주일	-8.56127
▁말씀해	-8.56214
▁걱정	-8.56301
호	-8.56364
▁대해	-8.56523
▁기다려	-8.56533
▁없고	-8.56605
▁이름	-8.56835
▁불	-8.56861
▁해도	-8.56864
해요	-8.56974
▁봐요	-8.56981
▁맛	-8.57209
▁열심	-8.57622
▁화장실	-8.57715
▁않는	-8.57727
박	-8.57758
▁홍보	-8.57813
▁되면	-8.58179
▁말이야	-8.58204
▁유명한	-8.58249
▁부서	-8.58255
▁감	-8.58293
▁이해	-8.58812
려면	-8.58865
▁해당	-8.59
▁출근	-8.59209
▁나오	-8.59349
▁것으로	-8.59543
표	-8.59674
▁어떨까요	-8.59687
▁드릴까요	-8.5975
▁15	-8.59759
▁시간에	-8.59937
▁아프	-8.60072
▁근처에	-8.6034
길	-8.60464
▁연	-8.60571
▁문의	-8.60583
▁나와	-8.60624
▁강	-8.60712
계	-8.60853
발	-8.60937
▁알려주세요	-8.60937
져서	-8.61047
▁생각보다	-8.61148
▁계획	-8.61235
권	-8.61341
▁분명	-8.61364
겠네요	-8.61387
▁받고	-8.61408
▁당연	-8.61523
▁들고	-8.61626
▁그것	-8.61896
▁피	-8.62
▁숙소	-8.62065
면서	-8.62209
르	-8.6238
▁되는데	-8.62487
▁회사에	-8.62574
▁방법이	-8.62893
▁색상	-8.6298
▁결과	-8.62994
▁가려고	-8.63078
▁핸드폰	-8.63361
▁위해	-8.63554
▁음식이	-8.63747
▁하죠	-8.63856
에서는	-8.63899
▁12	-8.63971
▁알아	-8.64004
▁챙겨	-8.64152
▁만들어	-8.64195
▁실	-8.64202
▁받아	-8.64311
해도	-8.64355
통	-8.64358
처럼	-8.64361
▁보이	-8.64555
▁가능할까	-8.64602
▁관리	-8.65003
▁들	-8.65262
내	-8.65324
터	-8.65345
겠다	-8.65472
▁뒤	-8.65481
▁프로그램	-8.65638
▁같아서	-8.65671
셨나요	-8.65689
한다고	-8.65726
▁아니고	-8.65816
▁마지막	-8.65858
▁걱정하지	-8.65932
보다는	-8.66125
▁쓸	-8.66418
▁좋지	-8.6642
▁않았	-8.66643
생	-8.66695
▁그렇습니다	-8.66722
▁발급	-8.66749
미	-8.66773
▁통	-8.66785
▁아닌	-8.6682
▁출시	-8.66937
▁되고	-8.66938
▁맞는	-8.67116
거든요	-8.67126
▁매우	-8.67183
주시면	-8.67295
▁천	-8.6744
업	-8.6756
프	-8.67613
▁배우	-8.67737
▁혼자	-8.67776
할게요	-8.68026
▁비용	-8.68027
▁수리	-8.68085
▁입원	-8.68144
▁충분	-8.68474
▁저번	-8.68678
음	-8.68748
▁탑승	-8.68896
▁화장품	-8.68921
▁알려주시면	-8.68982
▁공항	-8.69228
▁보시면	-8.69547
▁주문했는데	-8.69564
▁싶은	-8.69566
▁등	-8.69704
▁기차	-8.69789
▁투어	-8.69837
▁위치	-8.69841
거나	-8.69948
▁파	-8.70064
▁재	-8.70153
씬	-8.70254
▁면접	-8.70255
▁없을	-8.70422
주셔서	-8.70649
▁쿠폰	-8.70705
감	-8.70837
▁객실	-8.70973
▁좋겠어요	-8.71372
▁거지	-8.71538
▁맞습니다	-8.71612
▁발송	-8.71626
님	-8.71696
여	-8.71787
▁가자	-8.71822
▁가져다	-8.71831
급	-8.72016
훨	-8.72068
▁촬영	-8.72097
▁매일	-8.72172
▁아침에	-8.72196
▁탈	-8.72231
▁좌석	-8.72235
▁방이	-8.72254
▁여기에	-8.72418
▁굉장	-8.72527
▁전혀	-8.72554
▁결정	-8.72557
▁올해	-8.72654
▁잠시	-8.7277
안	-8.72783
으니까	-8.7281
입니까	-8.72988
▁환승	-8.73452
▁팔	-8.73481
형	-8.73637
시부터	-8.73801
▁설치	-8.73917
▁영어	-8.73932
개월	-8.73965
▁걸릴	-8.74021
크	-8.74148
▁50	-8.74164
▁기다려주세요	-8.74441
▁괜찮아	-8.74543
▁적어	-8.74784
공	-8.74844
▁보고서	-8.74955
▁기대	-8.74987
▁그렇지	-8.75002
▁매	-8.75218
▁건지	-8.75358
▁초	-8.75429
하는데	-8.75539
해드리겠습니다	-8.75542
씩	-8.75858
▁실수	-8.75915
▁맛이	-8.75963
▁신발	-8.76105
▁카페	-8.76107
셔도	-8.76241
▁집에서	-8.76398
저	-8.76611
▁샀는데	-8.76753
▁정보	-8.76766
다들	-8.76775
▁좋아요	-8.7681
▁손	-8.76884
▁대로	-8.76899
▁요금	-8.77038
에도	-8.77145
▁거라	-8.77533
▁100	-8.77922
▁그러	-8.78074
하나요	-8.78143
란	-8.78167
▁들었어	-8.78361
▁완료	-8.78399
▁최근에	-8.78399
▁주실	-8.78404
▁준비해	-8.78444
기도	-8.78647
이니	-8.78814
▁심	-8.7891
▁재고	-8.79097
▁야근	-8.79183
▁출구	-8.79206
건	-8.79234
▁제출	-8.79248
▁특별	-8.79409
줄	-8.79459
▁택배	-8.79476
▁작품	-8.79625
직	-8.7964
▁속	-8.79714
▁역	-8.79725
▁제작	-8.79771
▁누가	-8.79779
▁카드로	-8.79858
▁사용할	-8.79858
걸	-8.8012
색	-8.80283
▁크게	-8.8032
▁동	-8.80647
▁막	-8.80841
▁싶은데요	-8.81093
▁차이	-8.81135
레	-8.81144
기로	-8.81281
▁하자	-8.81317
▁주말에	-8.81393
▁문	-8.81398
달	-8.81409
▁11	-8.8142
▁셔틀버스	-8.81668
▁당장	-8.81753
▁왔어요	-8.81853
▁나왔	-8.81859
▁맛있는	-8.82033
▁이게	-8.82051
▁올려	-8.82119
▁얼른	-8.82173
▁늦게	-8.825
▁빼	-8.8267
▁양	-8.82769
▁둘	-8.82776
▁많아	-8.8296
봐	-8.83143
▁거래처	-8.832
▁일반	-8.83256
라면	-8.83428
▁보러	-8.83468
▁오른쪽	-8.83518
▁지나	-8.83592
체	-8.83612
▁미팅	-8.83712
▁신제품	-8.83718
받은	-8.84133
▁상품이	-8.84191
▁자꾸	-8.84225
▁넘	-8.84245
▁지각	-8.84254
▁길이	-8.84383
▁말씀하시는	-8.84457
하려면	-8.84606
▁체크인	-8.84788
▁확인하고	-8.848
▁하는데요	-8.84817
▁가족	-8.85018
▁잔	-8.85095
력	-8.85176
▁한다고	-8.85205
길래	-8.85276
종	-8.85295
예	-8.85432
▁남아	-8.85471
▁선	-8.85481
▁좋을까요	-8.85489
루	-8.85523
께	-8.85602
▁식	-8.85622
▁가까운	-8.85782
▁성함	-8.85788
▁직원이	-8.85959
▁아기	-8.86069
▁달에	-8.86314
▁생일	-8.86419
▁사항	-8.86591
▁병원	-8.86673
라는	-8.86777
▁중국	-8.86831
▁근무	-8.86845
까지는	-8.86866
▁효과	-8.86888
분이	-8.87281
▁좋아하는	-8.87363
▁있지만	-8.87452
▁부분이	-8.87579
▁봤는데	-8.876
▁차량	-8.87667
▁잠	-8.87865
▁졸업	-8.87882
▁있도록	-8.87904
▁도와드리겠습니다	-8.87935
놓	-8.88447
▁테니까	-8.88456
▁걸리	-8.8852
▁엄청나	-8.88632
▁보이는	-8.88658
▁등록	-8.88776
워서	-8.88815
▁중요한	-8.88829
▁갔	-8.88986
▁당	-8.88991
▁휴가	-8.88995
▁있었	-8.89017
하시고	-8.89072
달러	-8.89185
타	-8.89194
▁서	-8.89267
원이	-8.89336
▁여	-8.89759
▁김	-8.89776
5	-8.8995
역	-8.89966
▁티켓	-8.90072
▁고기	-8.90206
▁있으니까	-8.90453
증	-8.90611
▁보험	-8.90723
▁그러는데	-8.9083
▁나올	-8.90833
▁지역	-8.9088
▁이용할	-8.90933
▁보니까	-8.90969
▁쪽	-8.90995
▁할까요	-8.91156
▁써	-8.91204
하셨나요	-8.91403
품	-8.91739
▁잠깐	-8.91966
▁없네요	-8.92079
▁주차	-8.92083
▁아닌가요	-8.92446
예요	-8.92471
바	-8.92627
▁도착할	-8.92695
▁눈	-8.92741
▁괜찮습니다	-8.92894
연	-8.93021
▁생각이	-8.93256
▁치료	-8.93314
료	-8.93539
▁침대	-8.93554
▁타면	-8.93687
주실	-8.93702
▁됐	-8.93742
▁위한	-8.93746
었어요	-8.93808
▁연결	-8.93967
▁만약	-8.9402
▁분실	-8.942
릴	-8.94218
▁드리	-8.94359
어야	-8.94375
▁염색	-8.94555
류	-8.94556
▁요새	-8.94556
▁예매	-8.94578
▁참여	-8.94579
▁다르	-8.94592
▁이것	-8.94612
▁대기	-8.94733
심	-8.94767
▁내리	-8.94869
▁않을	-8.94973
▁도움이	-8.9506
디	-8.95068
▁과제	-8.95168
▁싶	-8.95182
▁하려고	-8.95245
▁덜	-8.95338
겠네	-8.95463
매	-8.95548
주시겠습니까	-8.95623
▁경비	-8.95788
▁거에요	-8.95882
▁만나	-8.95919
▁고객	-8.96032
이니까	-8.96057
▁하는지	-8.96087
▁모르겠어요	-8.96099
▁담당자	-8.96537
▁있었는데	-8.96539
▁외	-8.96726
그	-8.96772
▁기간	-8.96776
▁냄새	-8.96873
▁신분증	-8.96873
▁해결	-8.96909
었습니다	-8.96955
됐	-8.96997
▁해주	-8.97019
▁이동	-8.97109
하셔도	-8.97355
▁신경	-8.97488
▁먹으면	-8.97596
이라면	-8.97722
▁엄청	-8.97836
▁시에	-8.97848
▁올라가	-8.97996
▁면세점	-8.9815
며	-8.98168
하셨	-8.98267
하셔서	-8.98277
▁메일로	-8.98485
▁있기	-8.98649
▁며칠	-8.98649
▁회식	-8.98672
▁여기에서	-8.98882
▁의자	-8.98908
편	-8.99105
원입니다	-8.99123
▁만	-8.9917
▁물품	-8.99243
▁어려울	-8.99247
버	-8.99427
▁현금	-8.99477
▁마케팅	-8.99513
▁담당	-8.99613
▁않을까요	-8.99702
▁봤	-8.99719
▁감사	-8.99807
▁받	-8.99916
▁상황	-8.99918
▁좋습니다	-9.00002
▁하시면	-9.00036
▁않을까	-9.0008
작	-9.00303
▁수수료	-9.00456
▁괜찮을	-9.00469
▁출	-9.0049
잖아요	-9.00571
▁없을까요	-9.00576
▁예상	-9.00636
▁않나요	-9.00705
▁괜찮은	-9.01036
▁노트북	-9.01066
▁관람	-9.01069
▁소스	-9.01158
졌	-9.01312
▁찾으	-9.01444
겠지	-9.01445
▁생각합니다	-9.01513
장이	-9.01514
온	-9.01593
▁들어간	-9.01732
병	-9.01752
▁별	-9.01782
▁미국	-9.01891
▁주시겠어요	-9.01941
▁입고	-9.01948
▁마시고	-9.01961
▁색	-9.01992
▁학생	-9.02073
▁어차피	-9.02296
▁가려면	-9.02557
▁전시	-9.02666
복	-9.02706
▁저녁에	-9.02725
아서	-9.02847
▁비싸	-9.02854
▁빠르	-9.02917
▁이벤트	-9.02917
▁프로젝트	-9.02917
▁끝나	-9.0292
▁원하시는	-9.03036
었던	-9.03198
▁좋았	-9.0324
티	-9.03471
▁검사	-9.03562
▁가기	-9.03603
▁배송이	-9.03633
등	-9.03636
겠지만	-9.03705
렸	-9.03706
2	-9.03874
▁아직도	-9.04129
침	-9.04149
냐	-9.04151
▁브랜드	-9.04171
▁완전	-9.04172
▁나중에	-9.04173
▁금액이	-9.04194
▁그대로	-9.04252
▁인터넷	-9.04373
▁했어	-9.044
▁가져가	-9.04555
▁참석	-9.04613
▁차가	-9.0469
▁순	-9.04738
▁있네요	-9.04927
▁추	-9.04936
▁깨	-9.05056
▁그러게	-9.05278
인실	-9.05308
▁날씨	-9.05449
▁관	-9.05501
▁불러	-9.05517
판	-9.05536
량	-9.0559
▁않았는데	-9.05828
▁사는	-9.05869
▁얼마인가요	-9.06018
▁주의	-9.06025
▁위해서	-9.06039
▁받는	-9.06046
▁확실히	-9.06082
▁정확히	-9.06112
▁기계	-9.06124
▁사업	-9.06147
▁사려고	-9.06147
팀	-9.06173
▁조사	-9.06189
▁피부	-9.06226
배	-9.06244
▁관광	-9.06263
▁마세요	-9.06269
▁각	-9.06295
▁찍	-9.06301
▁쓰여	-9.06307
▁예약이	-9.06383
▁치	-9.06517
해주시면	-9.06531
송	-9.06572
날	-9.06632
▁자세	-9.06635
겨	-9.06656
▁괜찮아요	-9.06665
▁아닙니다	-9.06728
▁아니에요	-9.06772
거든	-9.068
하면서	-9.06943
▁뭔가	-9.06951
유	-9.06957
▁그래요	-9.07032
▁점이	-9.0706
▁대해서	-9.07308
볼	-9.07378
▁보관	-9.07504
▁사장님	-9.07567
되나요	-9.07631
▁보이는데	-9.07648
▁계약서	-9.0774
해드릴게요	-9.0778
명이	-9.07848
▁팀장님	-9.07881
▁오면	-9.07921
▁기억	-9.07925
▁싫어	-9.0803
▁반품	-9.08058
강	-9.08199
▁거래	-9.08245
▁기사님	-9.08269
▁메일	-9.08292
들도	-9.085
▁박물관	-9.08688
▁경	-9.0871
였	-9.08739
▁죄송합니다만	-9.08788
교	-9.0895
▁아닌데	-9.08954
▁모르겠어	-9.08982
▁위	-9.0917
▁종이	-9.0917
▁바꾸	-9.09221
▁쓰는	-9.0931
▁백화점	-9.09351
▁말씀해주세요	-9.09543
별로	-9.09552
았	-9.09842
▁모델	-9.10017
▁시장	-9.10094
▁애	-9.1026
▁말이	-9.10275
줘	-9.10462
▁바지	-9.10497
▁고민	-9.10507
드렸습니다	-9.10508
▁일정이	-9.1066
▁마사지	-9.1069
▁잡	-9.10891
처	-9.11015
설	-9.11207
▁하니까	-9.1125
▁공장	-9.11324
▁가입	-9.11364
▁달라	-9.11369
▁언제쯤	-9.11411
▁타야	-9.11561
▁원하는	-9.11706
▁끝나고	-9.11765
▁하니	-9.11851
격	-9.11881
▁싸	-9.11961
▁오랜만	-9.12044
▁햄버거	-9.12044
▁작업	-9.12052
▁목표	-9.12061
▁제공	-9.12137
▁결	-9.12258
▁여름	-9.12317
▁진	-9.12377
▁놓	-9.12377
▁고장	-9.1238
▁현금으로	-9.12458
▁하던데	-9.12471
거리	-9.12594
▁잡아	-9.12605
▁지난	-9.12611
▁검색	-9.1265
▁가보	-9.12658
▁키	-9.12693
▁곳에	-9.12697
더	-9.12802
드릴	-9.12887
▁가능하	-9.12956
▁크	-9.12977
▁기분이	-9.13002
▁거리	-9.13043
살	-9.13142
▁오시면	-9.13155
▁위험	-9.13421
▁물어봐	-9.13435
▁실적	-9.13452
▁했어요	-9.13547
호선	-9.1359
▁어디에서	-9.13833
▁교육	-9.13844
▁타는	-9.1388
▁끝	-9.13943
▁파는	-9.13972
른	-9.14085
▁그랬	-9.14193
▁개발	-9.14215
▁40	-9.1423
▁호	-9.14247
▁역시	-9.14287
▁나라	-9.14379
해보	-9.14417
모	-9.14546
포	-9.14569
▁다리	-9.14697
▁지도	-9.14703
국	-9.14741
▁누구	-9.14743
셨어요	-9.14803
▁보세요	-9.14844
▁제품으로	-9.14941
시죠	-9.14988
▁두고	-9.15068
▁비용이	-9.15163
▁의견	-9.15323
▁다이어트	-9.15517
▁검토	-9.15517
▁기능	-9.15533
임	-9.15756
▁과	-9.15801
▁할지	-9.15865
▁정도로	-9.15875
되지	-9.15893
▁이곳	-9.16
▁것보다	-9.16018
▁포함	-9.16253
▁일본	-9.1626
▁파마	-9.16263
▁어린이	-9.16333
▁신용카드	-9.16457
▁넘어	-9.16545
한데	-9.16563
▁발생	-9.1657
▁쉬	-9.16575
▁인사	-9.16742
봤는데	-9.16757
▁찾을	-9.1694
▁입력	-9.17026
▁그런지	-9.17208
▁나한테	-9.17237
피	-9.17355
▁가는데	-9.17379
▁쪽으로	-9.1742
▁시키	-9.17513
▁진료	-9.17524
▁검은색	-9.1766
▁디저트	-9.1766
▁어떠세요	-9.1766
▁맥주	-9.17661
▁근처	-9.17743
▁싶어서	-9.17818
▁회	-9.17865
하니	-9.17951
▁돌아가	-9.17955
▁병원에	-9.17995
▁스타일	-9.18231
께서	-9.1832
▁카메라	-9.18384
▁기준	-9.18408
▁화	-9.18426
▁지갑	-9.18427
겠어	-9.18428
▁받았는데	-9.18524
기를	-9.18626
▁계신	-9.18627
▁우	-9.18673
▁주말	-9.18698
▁정도는	-9.1871
▁어때요	-9.1881
▁오신	-9.18826
▁앉아	-9.18827
양	-9.18838
▁기존	-9.18918
하기로	-9.18926
▁좋아서	-9.18938
함	-9.19058
▁비슷한	-9.19114
자가	-9.19127
▁간단	-9.19141
▁금	-9.19148
▁올리	-9.19438
▁없지만	-9.19445
▁느낌이	-9.19594
▁기본	-9.19825
▁있게	-9.1985
▁테이블	-9.1985
▁퇴원	-9.19851
▁회계	-9.19869
▁그림	-9.1999
▁건강	-9.20001
▁가능	-9.20089
보고	-9.20399
▁부장님	-9.20433
▁없으니	-9.20454
▁풀	-9.20462
목	-9.20469
태	-9.20527
▁있죠	-9.2059
▁따	-9.20599
▁교체	-9.206
▁다니	-9.20717
▁나을	-9.20772
▁요금이	-9.20872
▁적용	-9.20987
▁입금	-9.21057
지요	-9.21072
쯤	-9.21175
▁되었	-9.21227
▁주는	-9.2125
▁나와서	-9.21282
▁저희도	-9.21306
▁죄송한데	-9.21342
액	-9.21556
▁저한테	-9.21595
▁예약하고	-9.21638
▁구매한	-9.21658
▁고마워	-9.21659
하자	-9.21682
▁온라인	-9.21723
▁알려주	-9.21944
▁파일	-9.21984
▁때문	-9.22029
▁서울	-9.22059
염	-9.2208
▁마무리	-9.22089
▁된다고	-9.22124
▁들었습니다	-9.22154
시길	-9.22158
었어	-9.22336
▁사야	-9.22358
▁하시는	-9.22431
이신가요	-9.22447
되면	-9.22557
▁주문하신	-9.22605
되었습니다	-9.22616
▁왼쪽	-9.22813
▁필요하	-9.22876
▁단체	-9.22878
지도	-9.22878
▁평소에	-9.22899
▁은행	-9.2292
▁너도	-9.23009
▁밤	-9.23045
불	-9.23162
▁많은데	-9.23218
▁노	-9.23234
▁내야	-9.23239
▁하네요	-9.23325
근	-9.23541
▁포	-9.23546
▁너희	-9.23625
▁지급	-9.23707
▁코	-9.24001
▁괜찮	-9.24012
째	-9.24241
▁하루에	-9.24249
법	-9.24277
▁예정	-9.24298
에요	-9.24322
▁들었어요	-9.24333
▁복	-9.24354
▁대부분	-9.24379
▁돼서	-9.24399
▁공항에서	-9.24405
▁급한	-9.24517
▁해보	-9.24568
▁되는지	-9.24658
▁남자	-9.2473
했을	-9.24759
▁안전	-9.2479
▁그렇지만	-9.24907
▁목	-9.24909
▁방으로	-9.24941
▁기다려야	-9.2499
▁확인할	-9.24996
▁직	-9.25145
▁가져오	-9.2516
▁재료	-9.25177
추	-9.25185
▁전체	-9.25296
▁없으면	-9.25315
▁걸로	-9.25355
▁외에	-9.25398
▁조심	-9.25569
▁하세요	-9.2572
▁인원	-9.25832
▁생산	-9.25861
갈	-9.25876
하다	-9.25993
▁알았는데	-9.26055
▁왔습니다	-9.26087
▁않으면	-9.26112
▁물어보	-9.26123
▁구매할	-9.26158
▁맛있어	-9.26159
▁코스	-9.26193
▁과일	-9.26282
▁물건이	-9.26357
▁거면	-9.26672
▁동아리	-9.26691
재	-9.26699
▁덕분에	-9.26723
속	-9.26746
▁고생	-9.26783
려서	-9.26904
▁그럼요	-9.26935
▁외국	-9.26962
▁가셔서	-9.27006
▁있어야	-9.27041
▁좋겠다	-9.27073
겠죠	-9.272
▁들어서	-9.27322
▁체	-9.27401
▁참고	-9.275
▁분위기	-9.27518
▁질문	-9.27535
▁다행이네요	-9.27558
▁방송	-9.2756
▁환불이	-9.27596
하네요	-9.2762
▁지내	-9.27624
▁대리님	-9.27728
▁만큼	-9.27834
▁대체	-9.28139
반	-9.28308
▁앞에서	-9.28324
▁쓰고	-9.28408
▁매운	-9.2842
▁급	-9.28499
▁자리에	-9.28547
했다고	-9.28563
▁예전에	-9.28642
하니까	-9.28797
3	-9.2882
▁지하	-9.28893
▁지난번에	-9.28918
▁기다리	-9.28928
▁회의실	-9.29031
셨는데	-9.29077
▁시켜	-9.29089
▁어렵습니다	-9.29174
▁성인	-9.29283
▁회원	-9.29454
▁피자	-9.29562
▁내려	-9.29622
쉽게	-9.29624
▁비싼	-9.29637
▁면세점에서	-9.29692
보세요	-9.29696
▁명이	-9.2976
▁있을까	-9.29824
▁봐야	-9.29886
잔	-9.29892
브	-9.29921
▁샐러드	-9.29936
▁엘리베이터	-9.29936
▁워낙	-9.29936
▁나머지	-9.29936
▁노력	-9.2996
드리	-9.29971
▁통화	-9.29999
▁괜찮을까	-9.30001
파	-9.30022
▁준비되어	-9.30144
▁좋은데	-9.30384
▁할인이	-9.30436
▁오전에	-9.30443
값	-9.30732
▁같으니	-9.30755
▁모르겠는데	-9.30867
▁전문	-9.30887
준	-9.31072
카	-9.31088
▁마감	-9.3123
경	-9.31254
▁있던	-9.31306
▁불편하	-9.3139
▁생겼	-9.315
▁다녀오	-9.31546
출	-9.3159
▁영상	-9.31622
▁허리	-9.31653
▁쭉	-9.31673
▁만든	-9.31675
더라고	-9.31707
▁박스	-9.31857
▁내려가	-9.32271
▁정지	-9.32306
▁문자	-9.32366
▁같지	-9.32415
▁맞지	-9.32415
▁상담	-9.32431
▁그동안	-9.32553
▁위에	-9.32557
합	-9.32604
▁들어가는	-9.3272
▁무리	-9.32725
▁해서요	-9.32823
▁아는	-9.32999
▁주변에	-9.33047
▁내에	-9.33175
▁연기	-9.33213
▁해드릴게요	-9.33231
칠	-9.33255
▁휴대폰	-9.33255
▁다양한	-9.3326
▁있다면	-9.3336
갔	-9.33508
▁직원들	-9.3352
▁매장에	-9.33572
▁때마다	-9.33581
▁몰라서	-9.33593
▁선적	-9.33644
▁드립니다	-9.33662
▁언제까지	-9.33793
돼서	-9.33956
▁친구들	-9.33977
▁보기	-9.34038
▁불편	-9.341
▁생긴	-9.34164
▁고르	-9.34171
▁국	-9.34262
▁현지	-9.34459
영	-9.34552
▁거기서	-9.34775
1	-9.34842
▁않았어	-9.34888
▁갖	-9.34924
▁치즈	-9.3497
▁그룹	-9.34971
▁말씀하신	-9.3506
▁있어서요	-9.35165
▁했습니다	-9.35353
▁성	-9.35385
▁똑같은	-9.35412
▁당일	-9.35431
▁재미있	-9.35706
▁보네요	-9.35759
축	-9.35794
▁하실	-9.35796
힌	-9.35808
▁세탁	-9.35816
▁여성	-9.35897
▁전달	-9.36002
드려	-9.3605
▁쪽에	-9.36246
▁운영	-9.36285
쳐	-9.36337
▁생	-9.36386
▁책자	-9.3647
▁콘서트	-9.36689
▁국내	-9.36708
▁옷이	-9.36711
이라는	-9.36761
▁얼굴	-9.36763
▁아마도	-9.36808
각	-9.36983
▁연락이	-9.37039
▁수요일	-9.37085
▁오세요	-9.37137
사항	-9.37195
봤	-9.37565
▁생기	-9.37566
▁알레르기	-9.37566
▁실례합니다	-9.37585
▁아파서	-9.37657
하다가	-9.37661
▁않아도	-9.37745
▁포장해	-9.37751
▁경우에는	-9.37852
▁구매하고	-9.3789
▁기회	-9.37912
▁먹었	-9.38127
▁부담	-9.38162
▁주시고	-9.38261
이네요	-9.38328
▁입구	-9.38395
▁같다	-9.38451
▁뛰어	-9.38451
▁인쇄	-9.38451
0,000	-9.3869
▁게임	-9.38731
만큼	-9.38809
▁그러니까	-9.38877
▁일부	-9.38975
▁통해	-9.39076
편하게	-9.39109
▁그걸	-9.39222
▁기사	-9.39229
▁필요한데	-9.39232
▁손님이	-9.39317
▁원피스	-9.39344
▁찾는	-9.39344
▁케이크	-9.39344
▁먹으러	-9.39344
▁항공권	-9.39353
했고	-9.39365
▁연락처	-9.39414
▁먹기	-9.39519
▁수영장	-9.39521
▁책상	-9.39649
▁않는데	-9.39728
▁사무실	-9.39769
▁이사	-9.3978
▁선생님	-9.39899
▁달라고	-9.39995
▁않은데	-9.40063
▁중에서	-9.40064
▁물이	-9.40157
▁빌려	-9.40252
▁들어갈	-9.40274
▁했던	-9.40339
▁돌	-9.40366
▁부탁드려요	-9.40439
▁여자	-9.40451
해보세요	-9.40474
▁사용하는	-9.40597
▁적은	-9.40667
▁망	-9.40679
▁최근	-9.40786
▁공항에	-9.41011
▁레스토랑	-9.41154
▁특히	-9.41154
▁늘	-9.4126
드릴까요	-9.4127
▁금요일	-9.41347
▁병	-9.41356
▁모르겠네요	-9.41432
▁켜	-9.41456
▁서로	-9.41589
민	-9.41793
▁최대	-9.41809
▁소개	-9.4189
▁변	-9.41959
는데요	-9.41993
▁하더라	-9.4205
▁괜찮으신가요	-9.42072
▁샘플	-9.42072
▁콜라	-9.42072
▁반납	-9.42084
▁반대	-9.42118
▁정확한	-9.42141
▁되게	-9.4223
▁상관없	-9.42284
▁교수님	-9.42314
▁중인데	-9.42314
▁거니까	-9.42399
▁수술	-9.4241
▁언제부터	-9.42425
▁이쪽	-9.42592
▁하셨	-9.4263
▁방향	-9.42658
인데요	-9.42658
▁공원	-9.4295
즈	-9.42982
▁24	-9.42985
▁높은	-9.42998
▁수화물	-9.43001
▁살짝	-9.43015
▁오후에	-9.43042
▁메뉴판	-9.43046
▁조회	-9.43053
▁힘	-9.43094
▁급하게	-9.43106
해주셔서	-9.43114
▁음료수	-9.43184
▁기다리고	-9.43421
항	-9.4358
▁본인	-9.43685
▁보이지	-9.43785
▁필요하신	-9.43818
▁물론이죠	-9.43933
▁겁니까	-9.43933
▁빌리	-9.43934
▁버튼	-9.43934
▁탈의실	-9.43934
▁치킨	-9.43935
▁일어나	-9.43935
▁운행	-9.43938
▁아뇨	-9.43939
▁출국	-9.43949
▁자동차	-9.43961
▁전화번호	-9.43984
▁기내	-9.44001
▁규정	-9.44058
었	-9.44086
▁내로	-9.4425
▁지금까지	-9.44351
이라니	-9.44435
▁빼고	-9.44612
▁만들	-9.44704
▁재밌	-9.44876
▁티셔츠	-9.44876
▁바꿀	-9.44881
▁예산	-9.44933
▁집중	-9.44947
이며	-9.44999
주는	-9.45114
▁편이	-9.45134
▁도시	-9.45147
▁저렴한	-9.45182
▁자신	-9.45202
▁때까지	-9.45207
외	-9.45388
일에	-9.45523
▁밖에	-9.45623
▁경기	-9.45719
플	-9.45753
▁향	-9.45821
▁신입	-9.45827
및	-9.45828
▁보내드리겠습니다	-9.4595
▁있는데요	-9.46028
▁있던데	-9.46147
▁되어서	-9.46262
▁어려운	-9.46463
▁사서	-9.46553
책	-9.46572
▁상황이	-9.46731
▁보자	-9.46731
페	-9.4678
▁있으세요	-9.46835
▁감사하겠습니다	-9.46845
▁에어컨	-9.4696
▁주문하고	-9.47025
▁어렵	-9.4708
▁향이	-9.47131
▁놀	-9.47154
▁귀	-9.47247
▁내부	-9.47261
▁예약할	-9.47274
▁특별한	-9.47307
▁사면	-9.47386
▁빵	-9.47452
0	-9.47515
▁중입니다	-9.4768
▁질	-9.47705
▁립스틱	-9.4776
▁바쁘	-9.4776
▁체크아웃	-9.4776
▁사항이	-9.47773
▁노선	-9.47793
▁하시	-9.47825
▁말씀해주시면	-9.4788
▁났	-9.47919
▁하긴	-9.47998
▁드	-9.48011
▁구매했는데	-9.48033
▁그날	-9.48062
▁화면	-9.48063
▁시내	-9.4807
▁매출	-9.48173
▁드리고	-9.48243
▁관련해서	-9.48292
▁맞춰	-9.48458
▁나오지	-9.48569
▁예정이	-9.48573
▁텐데요	-9.48687
▁곳으로	-9.48741
▁무조건	-9.48741
▁연습	-9.48757
▁여유	-9.48763
▁줄이	-9.4877
여서	-9.48771
▁이틀	-9.4879
용품	-9.48793
▁합	-9.48805
▁골라	-9.48921
▁저에게	-9.49136
▁싶다	-9.49138
하였	-9.49163
▁사원	-9.49178
왔	-9.49243
▁없다고	-9.49249
▁있으	-9.4929
▁맨	-9.49377
▁와인	-9.49382
▁금지	-9.4939
▁지하철역	-9.4939
키	-9.49455
▁당신	-9.49522
▁나가서	-9.49528
▁물론	-9.4961
필	-9.49641
이기	-9.49693
▁느끼	-9.49731
▁몸이	-9.49731
▁아빠	-9.49731
▁활동	-9.49731
▁과장님	-9.49855
일이	-9.49925
▁보내주세요	-9.49955
▁드시고	-9.50033
▁대리	-9.50047
,000	-9.50095
하시나요	-9.50125
▁수건	-9.5016
까지만	-9.50469
▁주차장	-9.50476
말	-9.50478
00	-9.50532
갑	-9.50639
▁취소하고	-9.50651
립	-9.50651
광	-9.50703
창	-9.50722
▁그렇구나	-9.50731
▁최소	-9.50731
▁포인트	-9.50731
▁걸리나요	-9.50855
▁제안	-9.50994
▁전화해	-9.51112
야겠다	-9.51115
▁이쪽으로	-9.51128
▁노래	-9.512
보시고	-9.51285
있긴	-9.51592
▁나이	-9.51599
▁꾸준	-9.51741
▁품절	-9.51741
해드릴	-9.51749
▁대학교	-9.5175
▁조절	-9.51758
▁축구	-9.5176
▁조식	-9.51814
▁좋겠네요	-9.51818
▁있었던	-9.51876
▁조건	-9.51961
▁저쪽	-9.51967
▁주문이	-9.52053
▁현	-9.52066
▁들어가서	-9.52068
겠군요	-9.5207
▁공지	-9.52081
별	-9.52267
▁없지	-9.52272
▁만한	-9.52293
▁있나	-9.52339
히려	-9.5246
▁주스	-9.52528
▁충전	-9.52592
혀	-9.52621
▁않게	-9.52631
▁들어오	-9.52638
시쯤	-9.52662
▁오지	-9.52699
답	-9.52755
▁많지	-9.52761
▁여쭤보	-9.52761
▁휴대전화	-9.52761
▁스파	-9.52792
코	-9.52814
▁출력	-9.52818
테	-9.52849
▁작년	-9.52903
▁각자	-9.52909
▁있으시면	-9.52933
렸는데	-9.53034
▁접	-9.53205
▁독	-9.5326
▁예약했는데	-9.53267
▁담	-9.53283
▁계시	-9.53361
▁힘들어	-9.53363
신가요	-9.53452
▁남았	-9.53478
▁분들이	-9.53741
▁호텔에서	-9.53785
▁있다는	-9.5386
▁자동	-9.53886
감이	-9.53916
였습니다	-9.54002
되었	-9.5404
▁자세히	-9.54053
▁맞으	-9.54155
▁도와	-9.5437
▁기간이	-9.54438
기에	-9.54723
▁맡기	-9.54834
▁그곳	-9.54921
▁알아보	-9.54929
▁부산	-9.54944
▁같아서요	-9.54947
▁않았습니다	-9.54995
▁거라고	-9.55019
해주실	-9.55102
▁드시면	-9.55175
▁서명	-9.55177
▁안내해	-9.5518
▁수납	-9.55261
▁중으로	-9.55293
야겠어요	-9.55327
▁주제	-9.55346
▁세일	-9.55418
▁자체	-9.55437
▁싶어서요	-9.55471
▁중이	-9.5553
▁먹어야	-9.55597
림	-9.55616
▁우리나라	-9.55623
▁드려	-9.55672
▁취	-9.5577
▁벌	-9.55782
▁복용	-9.55797
▁기획	-9.55887
▁아버지	-9.55888
▁파란색	-9.55893
▁빨간색	-9.55905
8	-9.55907
▁도와드릴게요	-9.55927
▁몰랐는데	-9.55976
▁담아	-9.55992
▁구두	-9.55996
▁계	-9.56027
▁말하는	-9.56039
룸	-9.56079
▁약속	-9.56103
▁기업	-9.56226
▁부족	-9.56287
▁앉아서	-9.56296
▁이전	-9.5633
▁번째	-9.56359
▁전원	-9.56421
▁할까	-9.56534
▁매장에서	-9.5658
장에	-9.56634
데요	-9.56636
▁줘	-9.56799
▁자기	-9.56924
▁입장	-9.56964
▁파티	-9.56979
▁나랑	-9.56992
▁모양	-9.57028
▁있었어	-9.57049
▁생겨서	-9.57069
▁나갈	-9.5708
▁물론입니다	-9.57098
▁없었	-9.57101
▁월요일	-9.57152
▁소식	-9.57191
▁화장	-9.57231
하지만	-9.57276
처리	-9.57297
▁이후에	-9.57336
▁구성	-9.57368
둔	-9.58026
▁자전거	-9.58026
▁근육	-9.58028
▁가이드	-9.58033
▁시청	-9.58068
초	-9.58244
할까요	-9.58262
되어서	-9.58325
▁바르	-9.58349
▁늦어	-9.58375
름	-9.58407
달라고	-9.58482
돼	-9.58491
력이	-9.58574
▁좋겠어	-9.58735
▁좋아하	-9.58799
▁힘든	-9.58821
▁아픈	-9.58901
▁동의	-9.58934
▁돌아	-9.58971
▁경찰	-9.59052
▁계산대	-9.59067
완	-9.59108
▁얼음	-9.59113
▁기술	-9.59128
▁해주시면	-9.59141
▁싶지	-9.59202
▁넣	-9.59273
▁비용은	-9.59293
밥	-9.59356
▁발라	-9.59377
▁구매하신	-9.59387
▁주변	-9.59422
▁되죠	-9.59498
▁색깔	-9.59871
▁받아야	-9.59879
만한	-9.59979
▁많아요	-9.60024
▁마시	-9.60064
군	-9.60083
▁면세	-9.60126
▁절대	-9.60166
▁되어있	-9.60168
▁파스타	-9.60215
▁담배	-9.60224
▁가끔	-9.60243
▁성적	-9.60276
▁팀원들	-9.60279
난	-9.60316
▁전공	-9.60356
▁전화로	-9.6049
▁착용	-9.6065
▁인원이	-9.60844
▁길에	-9.6086
▁알려주실	-9.60957
▁표시	-9.6104
▁연예인	-9.61192
▁작년에	-9.61198
▁거니	-9.6124
승	-9.61271
견	-9.61282
▁될까	-9.61285
▁기념	-9.61319
▁맞죠	-9.61323
▁어머니	-9.6134
인분	-9.61419
때	-9.61439
환	-9.61566
▁본사	-9.61616
▁알아봐	-9.61809
대체	-9.61833
▁내려서	-9.61849
▁분들	-9.61895
▁인터넷으로	-9.61969
▁학교에	-9.6201
▁여행자	-9.62035
▁끼	-9.62043
점이	-9.62062
하시겠어요	-9.62066
▁이곳에서	-9.62086
▁이미지	-9.6216
▁저기요	-9.62261
▁먹지	-9.62269
▁비가	-9.62339
▁결혼	-9.62371
퍼	-9.62387
▁쇼핑	-9.62394
락	-9.62407
황	-9.62418
탕	-9.62446
▁있니	-9.62446
▁있잖아	-9.62446
▁흰색	-9.62446
▁강아지	-9.62447
업체	-9.6246
▁우유	-9.62466
▁입국	-9.62486
▁연차	-9.62536
▁보안	-9.62576
▁동네	-9.62645
줘서	-9.62692
7	-9.62696
▁받지	-9.62712
▁목적지	-9.62744
▁맞춰서	-9.62772
▁전용	-9.62772
▁점수	-9.62854
▁나아	-9.62884
투	-9.62903
▁식당이	-9.63056
▁정류장	-9.63122
▁꽃	-9.63141
▁끝났	-9.63206
▁봐도	-9.6336
▁받았	-9.6342
▁보기에	-9.63424
▁생활	-9.63436
▁편하	-9.63477
▁많았	-9.63498
▁다녀	-9.63538
▁평가	-9.63568
▁기록	-9.63599
시다	-9.63664
▁가능한지	-9.63668
▁자르	-9.63689
느라	-9.63748
▁직장	-9.63787
▁괜찮은데	-9.63797
하던	-9.63919
▁병실	-9.63944
▁이메일로	-9.64009
▁여행용	-9.64083
▁좋네요	-9.64146
비가	-9.6435
▁보일	-9.64431
▁들었	-9.64474
습	-9.64514
▁많으	-9.64582
▁죽	-9.64612
분만	-9.6462
▁가도	-9.64627
웠	-9.64634
립니다	-9.64711
주셔야	-9.6472
▁아이들	-9.64729
▁터	-9.6474
▁생선	-9.64768
▁입어보	-9.64778
▁들어온	-9.6478
▁향수	-9.64829
▁싶었는데	-9.64836
▁볼게요	-9.64926
▁모르	-9.65069
6	-9.6507
꺼	-9.65139
▁꺼	-9.65467
이다	-9.65511
▁코너	-9.6554
▁내용이	-9.6554
겠습니까	-9.6557
▁앱	-9.65581
▁바다	-9.65658
▁알았어	-9.65715
억	-9.65867
케	-9.65895
▁샤워	-9.65895
▁텔레비전	-9.65895
▁층	-9.65896
자마자	-9.65908
▁여보세요	-9.65915
적이	-9.6592
▁차라	-9.65941
▁졸업식	-9.65954
받으	-9.65977
▁그러시면	-9.66038
▁않을래	-9.66175
▁청	-9.66229
▁가능할	-9.66253
▁씨	-9.66286
▁시까지	-9.66308
▁초과	-9.66317
▁큰일	-9.66338
▁부모님	-9.66389
▁점심시간	-9.66401
▁걱정이	-9.66479
▁프로그램이	-9.66496
▁바꾸고	-9.66545
▁계시는	-9.66562
▁침	-9.6658
▁출고	-9.6661
▁누	-9.6663
볼까	-9.66657
▁법	-9.66695
▁짜	-9.66701
▁나눠	-9.66788
▁국가	-9.66788
능	-9.66881
▁학	-9.67015
겼	-9.67062
▁계좌	-9.67068
▁들어있	-9.67071
▁빠지	-9.67071
주셨으면	-9.67071
▁배터리	-9.67071
▁미용실	-9.67072
▁실례지만	-9.67082
▁좋아해서	-9.67087
▁연말	-9.67093
▁의미	-9.67104
▁책임	-9.67115
▁가져다드릴게요	-9.67148
절	-9.67171
▁따라서	-9.67212
▁고려	-9.67233
▁진행하	-9.67255
해드릴까요	-9.67276
▁가수	-9.67318
어도	-9.67542
▁지난주에	-9.67548
백	-9.67595
▁가셔야	-9.67619
▁나면	-9.67729
▁곳에서	-9.67747
▁않았어요	-9.67773
▁입사	-9.678
▁때도	-9.67905
야겠어	-9.68006
▁생각하고	-9.68084
▁한국에서	-9.68122
▁중간에	-9.68212
▁많을	-9.68262
▁계단	-9.68304
▁비교	-9.68333
▁약이	-9.68361
▁열차	-9.68379
▁친	-9.68581
동안	-9.68726
▁안에서	-9.68779
▁마실	-9.68795
토	-9.6885
번호	-9.68852
▁가능한데	-9.68917
▁중이라	-9.68963
▁시스템	-9.6899
서요	-9.69048
▁속도	-9.69122
▁날이	-9.69126
▁버	-9.69137
▁갈까	-9.69166
하려고요	-9.69314
▁찾아보	-9.69368
▁궁금하	-9.69459
▁괜찮으세요	-9.69467
▁듣고	-9.69467
▁빠른	-9.69467
▁사이트	-9.69483
▁돌아오	-9.69489
▁번에	-9.6951
▁보호자	-9.69573
▁말씀드리	-9.69601
주시고	-9.69733
▁하기	-9.69744
▁학생들	-9.69746
해주신	-9.69772
▁제한	-9.69796
▁교	-9.69824
▁이걸	-9.69872
▁이상이	-9.6993
▁드리면	-9.69965
해달라고	-9.69993
▁종	-9.70169
▁진행하는	-9.70184
▁철	-9.70285
▁수표	-9.70363
▁수출	-9.70527
▁몰	-9.70534
▁새벽	-9.70547
인가	-9.70614
션	-9.70665
▁진열	-9.70669
▁이내에	-9.70701
▁시술	-9.70718
▁기내식	-9.70722
▁보낼	-9.70726
들에게	-9.70771
▁부르	-9.70805
▁가능하세요	-9.70816
▁심사	-9.70839
▁울	-9.7086
받	-9.70972
▁먹어보	-9.71043
▁바람	-9.71068
▁긴	-9.71129
▁갔는데	-9.71149
▁드려요	-9.71206
원이고	-9.71287
▁되니까	-9.71298
▁연장	-9.71298
▁토	-9.71302
드립니다	-9.71322
▁대상	-9.71335
▁커	-9.71398
물이	-9.71482
▁홈페이지에	-9.7157
▁하신	-9.7174
해드리고	-9.71811
▁어울리는	-9.71814
봉	-9.71818
▁출발하는	-9.7183
하라고	-9.71837
▁분야	-9.71861
▁탄	-9.71868
패	-9.71898
▁남자친구	-9.71921
▁드디어	-9.71921
▁바빠서	-9.71921
▁뽑아	-9.71921
▁스테이크	-9.71921
▁가능해요	-9.71953
▁하셔야	-9.71989
▁필요해요	-9.72047
▁갈래	-9.72086
▁오류	-9.72091
▁후식	-9.72139
▁수령	-9.72158
▁잠시만요	-9.72303
다던데	-9.72323
주면	-9.7233
하느라	-9.72346
니깐	-9.72389
▁입어	-9.7243
▁제품에	-9.72447
▁리	-9.7247
망	-9.72489
런	-9.72523
향	-9.72552
▁걸어	-9.7274
▁편의점	-9.72777
▁가세요	-9.72895
▁대학	-9.72976
▁호텔에	-9.72989
▁지나가	-9.73041
쳤	-9.73051
▁관심	-9.7308
▁신입사원	-9.73097
▁미술관	-9.73186
▁각각	-9.73188
▁적립	-9.7319
▁매주	-9.73199
▁힘드	-9.73225
▁500	-9.73377
▁삼	-9.73414
줄게	-9.73488
줘야	-9.73524
▁싸게	-9.73544
▁나는데	-9.73631
▁인상	-9.7364
▁내일까지	-9.73661
▁있었어요	-9.7377
▁골	-9.7384
▁보여주	-9.73848
하셨어요	-9.73882
▁모자	-9.73915
▁컵	-9.73969
▁방에	-9.74021
▁주문할	-9.74067
▁허	-9.74125
▁깎아	-9.74139
▁소비자	-9.74323
▁돈이	-9.74354
▁따뜻한	-9.74436
▁옮겨	-9.74436
▁중인	-9.74477
▁시각	-9.74511
▁알았습니다	-9.74517
▁작동	-9.74547
▁투자	-9.74548
▁도움	-9.74611
▁되었습니다	-9.74615
해지	-9.7482
되고	-9.7484
겠	-9.74959
열	-9.75218
▁이메일	-9.7524
▁토요일	-9.75254
제품	-9.75271
▁무게	-9.7533
드린	-9.75424
▁상자	-9.75425
▁내일부터	-9.75488
▁거기에	-9.75564
충	-9.75607
▁묵을	-9.75631
▁몰라	-9.75685
▁아르바이트	-9.75719
▁여쭤봐	-9.75719
▁빌릴	-9.75719
▁제주도	-9.75733
▁도와드릴까요	-9.75751
▁상처	-9.75771
끼리	-9.75785
▁약국	-9.75816
▁간식	-9.75842
려고요	-9.75881
▁걸리는	-9.75918
▁약간	-9.75953
▁긴장	-9.75965
▁실적이	-9.76036
▁드실	-9.76064
4	-9.76311
친	-9.76349
했네요	-9.76367
청	-9.76375
▁가시는	-9.76402
▁받아서	-9.76512
▁뭔가요	-9.76567
▁넣으	-9.7662
▁전까지	-9.76691
▁제품들	-9.76708
▁갔다	-9.76743
▁아래	-9.7675
시간이	-9.7679
▁늦을	-9.77017
▁붙어	-9.77017
▁어울릴	-9.77017
▁퇴사	-9.77018
▁노란색	-9.77026
▁거라서	-9.77034
▁뵙	-9.7704
▁틀	-9.77046
▁양식	-9.77089
▁놀러	-9.77121
▁뒤로	-9.77162
▁펜	-9.7732
▁창고	-9.77353
셔	-9.7737
▁잘라	-9.77375
졌어요	-9.77417
▁확인해보	-9.77458
였는데	-9.77518
▁도와주	-9.77524
▁수량	-9.77607
▁예약해	-9.77747
▁되네요	-9.77751
▁유지	-9.77804
▁데리	-9.77935
▁듯	-9.77978
▁끝내	-9.77993
성이	-9.78069
했으면	-9.78142
론	-9.78294
곤	-9.78328
▁같고	-9.78333
▁업데이트	-9.78333
▁있대	-9.78333
▁케이팝	-9.78333
▁정확하게	-9.78357
▁녹	-9.78365
었으면	-9.78367
▁환율	-9.78387
▁놓고	-9.78397
▁리가	-9.78441
▁뭐야	-9.78466
▁조정	-9.78488
▁부위	-9.7849
기엔	-9.78491
▁연락드리겠습니다	-9.78544
▁드시	-9.78545
시겠어요	-9.78556
▁오셔서	-9.78645
▁베	-9.78669
▁찾아봐	-9.78713
▁연락해	-9.78736
▁느낌	-9.78793
▁걸어가	-9.78809
▁정신	-9.78956
▁않네요	-9.7903
9	-9.79146
년이	-9.79301
▁한다는	-9.7933
▁환자	-9.79393
▁봤어	-9.79531
▁가방이	-9.79558
▁남아있는	-9.79666
▁반입	-9.79666
▁기념품	-9.79683
▁죄송해요	-9.79683
▁꺼내	-9.79687
▁발견	-9.79691
지고	-9.7976
▁외부	-9.79768
▁쪽에서	-9.79841
▁1,000	-9.79856
▁5,000	-9.79865
▁식당에서	-9.79951
▁사이즈로	-9.80092
▁정거장	-9.80111
▁생각했는데	-9.80176
▁아이들이	-9.80259
▁만나서	-9.80322
▁화장실이	-9.80332
▁사용하고	-9.80404
▁써서	-9.80404
▁찍고	-9.8044
하다고	-9.80473
보자	-9.80615
짜리	-9.80622
▁판매대	-9.80651
채	-9.80659
▁도와드리	-9.80717
▁임	-9.80745
검	-9.80948
풍	-9.80993
▁많습니다	-9.81018
▁모니터	-9.81018
▁다행히	-9.81019
▁승인	-9.81024
▁끝난	-9.81031
▁기재	-9.81034
▁앞쪽	-9.81036
▁어른	-9.81074
▁지원자	-9.81114
▁넌	-9.81126
▁의사	-9.81155
▁심하	-9.81296
▁주문할게요	-9.8132
▁없죠	-9.81347
▁정리해	-9.81381
▁커서	-9.81384
▁명세	-9.81461
들과	-9.81581
▁매출이	-9.8182
▁축하	-9.81837
▁정류장이	-9.8193
▁있다가	-9.81941
올	-9.81946
했으니	-9.81956
평	-9.8205
▁예쁘	-9.8219
▁사이에	-9.82291
▁개수	-9.82323
▁멀리	-9.82388
▁축제	-9.82389
▁체험	-9.82391
▁수하물	-9.82395
▁크림	-9.82403
▁만드는	-9.82403
▁결재	-9.82407
▁예능	-9.82415
▁아이디어	-9.825
▁보내주시면	-9.82532
▁시계	-9.82559
▁새우	-9.82582
팀에	-9.82599
▁받으실	-9.82665
▁확인해보니	-9.82672
▁미안해	-9.82676
▁현장	-9.82733
었나요	-9.82779
▁말해	-9.82944
▁않으셔	-9.82946
▁과자	-9.83016
▁둘이	-9.83153
▁눈에	-9.83241
았는데	-9.83262
▁반응이	-9.83295
▁준	-9.83403
▁보여서	-9.83423
글	-9.83492
▁지점	-9.83521
▁경험이	-9.83546
▁제출하	-9.83604
▁기억이	-9.83649
▁아이스크림	-9.83776
▁최고	-9.83777
▁양념	-9.83784
▁합격	-9.83793
▁인턴	-9.83795
▁좋다	-9.83815
▁말씀이	-9.83896
뿐	-9.83921
하며	-9.83922
▁찾아가	-9.84063
뿐만	-9.84096
해보고	-9.84194
▁뭐라고	-9.8425
▁알아보고	-9.84302
▁주고	-9.84418
▁걸어서	-9.84437
후	-9.84532
▁설명해	-9.84692
▁판	-9.84723
▁맞는데	-9.84746
너	-9.84866
▁숙박	-9.84997
▁나오면	-9.85
▁이전에	-9.85089
움	-9.8516
▁있을지	-9.85163
▁단가	-9.8518
▁그렇긴	-9.85185
▁봅니다	-9.85185
▁헬스장	-9.85185
▁귀찮	-9.85186
▁재발급	-9.85191
▁아이돌	-9.85202
▁소고기	-9.85202
▁항공사	-9.85231
▁전망	-9.85255
▁대여	-9.85311
▁축하해	-9.85322
▁세금	-9.85331
▁제시	-9.85421
▁내내	-9.85464
▁쉽지	-9.85639
▁문구	-9.85649
▁막히	-9.85653
▁물어보고	-9.85852
▁떨어지	-9.8589
▁중국어	-9.85908
▁금요일에	-9.85915
▁걸려	-9.86129
▁아닐까	-9.86184
▁바람에	-9.8619
▁좋겠는데	-9.86216
▁해드릴까요	-9.86243
▁센터	-9.8628
▁오고	-9.86333
▁깜빡	-9.86421
했었는데	-9.86455
겠는데	-9.86473
▁외국인	-9.86497
▁소요	-9.86553
팅	-9.86556
▁메뉴는	-9.86576
▁아는데	-9.86581
언	-9.86585
▁강의	-9.8661
▁맡겨	-9.86614
▁음악	-9.86615
▁지켜	-9.86623
▁만족	-9.86629
해봐	-9.86637
▁땀	-9.86639
▁대략	-9.8664
▁청구	-9.86653
▁배경	-9.86681
▁색상이	-9.86717
▁보내드리	-9.86728
▁해드릴	-9.86736
▁써야	-9.86763
▁채	-9.86825
▁사정	-9.86897
▁빈	-9.86925
▁마셔	-9.87107
▁성공	-9.87153
▁열어	-9.87199
해주시겠어요	-9.87232
▁박	-9.87251
▁폐	-9.87273
▁밀	-9.8731
▁폭	-9.87318
매번	-9.8756
▁주방	-9.87666
▁칸	-9.87819
▁음식점	-9.8789
▁색이	-9.87907
▁오늘부터	-9.87957
주신	-9.87959
더라도	-9.88048
▁고등학교	-9.88063
▁듣는	-9.88063
▁물리치료	-9.88063
▁밴드	-9.88063
▁아메리카노	-9.88063
▁에스컬레이터	-9.88063
▁빠져	-9.88063
▁홍콩	-9.88063
▁어깨	-9.88068
▁연봉	-9.88085
▁물을	-9.88093
▁장난감	-9.88106
▁공유	-9.88114
▁헤어	-9.88151
▁밤에	-9.88198
▁분실물	-9.88329
▁분석	-9.88348
던데요	-9.88422
▁치수	-9.88459
▁생각해요	-9.88506
▁나가는	-9.88513
▁화장실에	-9.8853
▁이름이	-9.88578
▁보겠습니다	-9.88593
봐도	-9.88676
스트	-9.88865
▁무엇인가	-9.89067
▁부족한	-9.89124
했는지	-9.89231
▁하게	-9.89252
▁분기	-9.89296
▁들어왔	-9.89302
▁모르는	-9.89354
담	-9.89368
▁기한	-9.89444
렴	-9.89453
▁그쪽	-9.89466
링	-9.89532
▁눌러	-9.89533
킹	-9.89533
▁설정	-9.89536
▁반대편	-9.89553
▁기다려주시면	-9.89598
▁글	-9.89608
▁부품	-9.89641
하셨던	-9.89669
원에	-9.89801
▁운동화	-9.89829
▁예정인데	-9.89841
▁10,000	-9.89893
▁권	-9.89901
▁클	-9.89937
▁조리	-9.89954
용으로	-9.89993
되는데	-9.90064
▁제거	-9.90094
해드리	-9.90109
▁드리는	-9.90119
▁온다고	-9.90142
놨	-9.90161
받을	-9.90236
▁애들	-9.9033
▁나가야	-9.90374
▁필요할	-9.90444
▁좌석이	-9.9048
▁오는데	-9.90494
▁할게	-9.90495
▁어떤가요	-9.90503
▁통해서	-9.90592
▁익	-9.90607
▁룸	-9.90753
▁넣어서	-9.90781
▁근	-9.90861
▁교통	-9.90958
▁나옵니다	-9.91026
▁대중교통	-9.91026
▁송장	-9.91039
▁환급	-9.91039
▁꽉	-9.91052
▁버리	-9.91054
▁군데	-9.91063
▁혼	-9.9107
야겠네요	-9.91072
▁드세요	-9.91118
▁평	-9.91206
▁저렴하게	-9.91225
▁상품으로	-9.91253
▁역에서	-9.9129
▁남았는데	-9.91306
으신	-9.91314
▁아이스	-9.91358
▁마음이	-9.91442
▁편한	-9.91532
▁다르게	-9.91559
▁정류장에서	-9.9156
▁중요	-9.91607
▁중요하	-9.91637
▁오시는	-9.91678
금액	-9.91746
▁사다	-9.91837
▁전부터	-9.91958
▁창	-9.9201
▁회의에	-9.92084
▁증가	-9.9209
분께	-9.92127
▁그랬어	-9.92163
십니까	-9.92274
▁죄송	-9.92423
이지만	-9.92433
▁불이	-9.92468
시로	-9.92532
▁같던데	-9.92541
▁메이크업	-9.92541
▁최종	-9.92541
▁주인공	-9.92542
▁사은품	-9.92544
먹	-9.92554
▁모르겠지만	-9.92578
더군요	-9.92586
▁적혀	-9.92594
▁채용	-9.92594
▁간격	-9.926
회의	-9.92702
쪽	-9.9273
▁것들이	-9.92748
▁못해서	-9.92755
분들	-9.9278
▁하다	-9.9278
▁영업팀	-9.92816
▁중간	-9.92869
▁집으로	-9.93015
볼게요	-9.93024
봐야	-9.93067
▁닫	-9.93087
▁합니까	-9.93365
▁요즘에	-9.93391
▁도착하	-9.93466
▁학원	-9.93481
▁너랑	-9.93482
▁내리면	-9.93541
▁대해서는	-9.93652
래요	-9.93744
할까	-9.93969
▁주사	-9.93972
낸	-9.94026
겁	-9.9405
찌	-9.94061
▁다른데	-9.94062
섯	-9.94073
▁냉장고	-9.94079
▁높아	-9.94079
▁붙여	-9.94079
▁오렌지	-9.9408
▁쇼핑몰	-9.94082
▁반영	-9.94122
▁기다리셔야	-9.94135
▁건너	-9.94216
▁환전소	-9.94268
▁대비	-9.94402
▁받으면	-9.9445
▁나눠서	-9.94452
▁올게요	-9.94471
▁이걸로	-9.94697
▁나왔는데	-9.94755
▁어서	-9.94782
▁이상한	-9.9485
▁좋아하지	-9.94854
▁가능성	-9.94865
▁변경할	-9.94986
▁여름에	-9.95037
▁절	-9.95041
▁수프	-9.95049
▁책이	-9.95061
▁드셔	-9.9514
▁지하철이	-9.95266
▁없어서요	-9.95333
▁낼	-9.95384
▁고객님이	-9.95408
▁수학	-9.95413
▁거라면	-9.95419
▁와야	-9.95454
이어서	-9.95507
▁체크	-9.95522
▁보입니다	-9.95602
▁회의는	-9.95606
▁눈이	-9.95618
하시기	-9.95635
얼	-9.9564
▁분홍색	-9.95642
▁옮기	-9.95642
▁반드시	-9.95642
▁선풍기	-9.95642
▁해산물	-9.95643
▁정해진	-9.95643
▁적응	-9.95646
▁영향	-9.95647
▁창가	-9.95656
▁들어올	-9.95671
▁궁금합니다	-9.95674
▁건가	-9.95679
▁전략	-9.95686
▁확	-9.95696
▁개봉	-9.95718
▁계세요	-9.9572
▁변경이	-9.95731
벌	-9.95735
▁문화	-9.95749
취	-9.95758
▁기다리시면	-9.95758
슬	-9.95763
▁연구	-9.95764
커	-9.95793
▁대회	-9.95793
인이	-9.95883
▁경험	-9.95907
▁공사	-9.9594
▁모르는데	-9.95962
▁들리	-9.9608
▁당연하지	-9.9614
▁구매하려고	-9.96165
▁환자분	-9.96177
▁오늘도	-9.96214
▁방향으로	-9.96265
▁그분	-9.96474
▁드는	-9.96743
▁번만	-9.96912
▁밀려	-9.96957
량이	-9.96968
▁법인	-9.96975
득	-9.97101
실에	-9.97144
▁마련	-9.97178
▁베트남	-9.97229
▁여자친구	-9.97229
▁교통사고	-9.9723
▁활용	-9.9723
▁바이어	-9.97238
▁아무것	-9.97254
▁점검	-9.97255
▁실망	-9.97255
이라서요	-9.97289
▁분들은	-9.97303
▁더욱	-9.97305
▁차가운	-9.97397
▁되겠네요	-9.97489
▁나오나요	-9.97493
▁마트	-9.97572
▁영수증이	-9.97582
▁사과	-9.97607
▁학기	-9.97686
해볼	-9.97687
▁색깔이	-9.97725
시지	-9.97738
▁느껴지	-9.97746
▁됐는데	-9.97827
▁드시는	-9.97881
▁진행할	-9.97889
▁먹자	-9.9794
▁만에	-9.97944
▁온라인으로	-9.98009
▁백	-9.98107
하잖아	-9.9829
▁이러	-9.98365
▁가져다드리	-9.98422
뒀	-9.98484
▁견적	-9.98561
▁유명	-9.98591
▁홈페이지	-9.98612
원으로	-9.98613
하였는데	-9.98695
드리고	-9.98773
▁예쁜	-9.98789
▁좋을까	-9.98826
욕	-9.98834
▁바뀌었	-9.98842
▁찾기	-9.98842
▁신용장	-9.98843
▁파악	-9.98851
▁단순	-9.98858
▁감사드립니다	-9.98859
▁연휴	-9.98859
▁작	-9.98872
▁달라서	-9.98873
▁생길	-9.98879
수록	-9.98901
▁남겨	-9.98901
▁땐	-9.9892
▁자유	-9.98937
▁포함되어	-9.98946
비는	-9.98958
▁관심이	-9.98996
▁아파요	-9.99041
▁먹어서	-9.991
▁싶네요	-9.99109
▁측에서	-9.99159
▁내려야	-9.99167
▁디자인이	-9.99217
▁사내	-9.99224
▁못한	-9.99344
▁요구	-9.99344
▁봐서	-9.99351
일까지	-9.99361
▁먹었는데	-9.99366
▁일행	-9.99375
▁물에	-9.99384
▁구매하시면	-9.9939
▁한잔	-9.99397
▁지정	-9.99401
하죠	-9.9941
▁학교에서	-9.99415
수가	-9.99422
▁보이네요	-9.99478
으시면	-9.99542
▁그만	-9.99554
▁뜻	-9.9969
▁이따가	-9.99891
분에	-9.99909
▁결제가	-9.99975
▁알았	-9.99988
▁해외에서	-10.0002
▁도서관	-10.0011
▁직원들이	-10.0017
▁도와줄	-10.0017
▁궁금한	-10.0019
▁변경하고	-10.0029
▁걸릴까	-10.0031
▁시부터	-10.0034
▁떡볶이	-10.0048
▁렌터카	-10.0048
▁맡아	-10.0048
▁첨부	-10.0048
▁연극	-10.005
시네요	-10.005
▁들어오는	-10.0053
주실래요	-10.0053
▁선물로	-10.0055
▁찾으시는	-10.0056
▁싶으	-10.0057
▁모여	-10.0061
▁어울리	-10.0062
▁기본적	-10.0065
▁아냐	-10.0066
낼	-10.0069
▁걸까	-10.007
▁보여주세요	-10.0076
▁운동이	-10.0082
▁알지	-10.0095
▁옛날	-10.0104
▁좋아하는데	-10.0106
다는데	-10.0107
▁거랑	-10.011
▁배송비	-10.0112
▁확인해보고	-10.0112
드리면	-10.0115
▁감자	-10.0128
하긴	-10.0137
▁내년	-10.0142
▁가려	-10.015
▁잘하는	-10.017
▁약속이	-10.0192
한다는	-10.0203
▁차로	-10.0206
▁하셨는데	-10.0214
왕	-10.0215
▁유럽	-10.0215
▁행복	-10.0215
▁미뤄	-10.0216
▁잡혀	-10.0217
라니	-10.0217
▁제외	-10.0217
▁명절	-10.0219
▁국제	-10.0222
해볼게요	-10.0223
▁발권	-10.0223
▁주셔야	-10.0223
▁아쉽네요	-10.0223
▁다음번에	-10.0229
▁전시회	-10.0231
▁관해	-10.0233
준다고	-10.0238
▁전통	-10.0239
▁화상	-10.0239
▁졸	-10.0243
▁숨	-10.0244
▁국물	-10.0257
▁이용하시면	-10.0262
▁아니지만	-10.0262
▁무상	-10.0271
▁한국어	-10.0271
▁아니라서	-10.0273
▁처음이라	-10.0276
▁내역	-10.0277
▁어디인가요	-10.0278
▁처방	-10.0285
개가	-10.0288
▁예약하신	-10.0289
해보는	-10.029
▁되었는데	-10.0321
▁집이	-10.0323
▁월	-10.0323
▁예전	-10.033
주십시오	-10.0333
▁지불	-10.0334
▁일로	-10.0339
▁식으로	-10.034
▁물량	-10.0344
▁모르겠네	-10.0348
▁팔고	-10.0349
▁알아서	-10.0353
▁찾아서	-10.0359
▁세워	-10.0366
▁보내주	-10.0367
한다면	-10.0372
▁됩니	-10.0375
효	-10.0377
▁원입니다	-10.0378
▁움직이	-10.0384
▁초콜릿	-10.0384
곡	-10.0384
탔	-10.0384
▁뉴스	-10.0384
▁협상	-10.0385
▁적당한	-10.0385
▁볼펜	-10.0385
▁정해져	-10.0385
▁메모	-10.0385
주시기	-10.0385
▁월급	-10.0386
▁확정	-10.0389
▁있었습니다	-10.0404
▁23	-10.0404
▁직원에게	-10.0405
▁작성해	-10.0405
▁갖다	-10.041
▁보네	-10.0414
▁어떡하지	-10.0417
▁하나씩	-10.0418
둘	-10.0426
▁깊	-10.0436
▁불편하게	-10.0442
▁주문하면	-10.0453
해줘	-10.0456
▁왔는데요	-10.0458
▁남지	-10.047
▁좋고	-10.047
▁양이	-10.0475
해주시고	-10.0475
해주는	-10.0477
▁좋다고	-10.0486
▁인해	-10.0497
▁인터넷에서	-10.0501
▁25	-10.0512
▁주신	-10.0521
▁저쪽에	-10.0527
▁힘들었	-10.0527
▁먼	-10.0535
▁연고	-10.0543
▁지나면	-10.0547
▁시설	-10.055
일부터	-10.0553
▁없네	-10.0556
▁증상	-10.0556
▁뜨거운	-10.0557
▁룸서비스	-10.0557
▁많고	-10.0557
▁뭔지	-10.0557
받았	-10.0557
▁형태	-10.0558
▁취업	-10.056
▁야구	-10.056
▁절차	-10.056
▁있으신	-10.0564
▁친구들이	-10.0565
▁그리	-10.0571
▁말도	-10.0576
▁지루	-10.0576
▁명단	-10.0578
▁내릴	-10.0583
▁찍는	-10.0583
▁되겠	-10.0587
▁갔다가	-10.0589
▁실제로	-10.059
▁하셔서	-10.0593
▁조금씩	-10.0594
▁너한테	-10.0599
받고	-10.0603
▁통증이	-10.0613
▁화요일	-10.0613
▁팩	-10.0621
시키	-10.0622
▁처음에	-10.0625
▁드는데	-10.0632
▁금액은	-10.0644
▁힘들어요	-10.0654
납	-10.0656
▁도로	-10.0661
했나요	-10.0666
▁말씀을	-10.0671
익	-10.0671
해야겠네요	-10.0682
▁응원	-10.0694
▁몰랐어	-10.0698
▁터미널	-10.0703
▁주까지	-10.0714
▁한국에	-10.0716
▁받아보	-10.073
▁감자튀김	-10.0732
▁깜짝	-10.0732
▁어떠신	-10.0732
▁최선	-10.0732
▁왕복	-10.0732
▁비밀번호	-10.0732
▁간호사	-10.0733
▁교통카드	-10.0733
▁없으신가요	-10.0733
▁출연	-10.0736
▁민	-10.0737
▁어쩌죠	-10.0738
▁소재	-10.0739
▁마련되어	-10.074
볼까요	-10.0741
▁여전	-10.0742
번에	-10.0742
▁할부	-10.0743
▁식당에	-10.0744
기만	-10.0744
▁지났는데	-10.0745
▁매진	-10.0753
▁목요일	-10.0763
▁가실	-10.0769
막	-10.0781
▁묵	-10.0783
▁지난번	-10.0791
졌는데	-10.0795
▁입을	-10.08
▁가게에서	-10.0803
▁수밖에	-10.0804
▁이불	-10.0817
▁결제해	-10.083
▁하면서	-10.0843
▁불가	-10.0848
된다고	-10.085
▁전자	-10.0864
▁못했는데	-10.0864
▁다니는	-10.0865
▁인력	-10.0882
▁똑같	-10.0884
▁참가	-10.0886
휴	-10.0887
▁어떻	-10.089
▁전체적	-10.0899
▁밝은	-10.0906
▁도와드릴	-10.0907
▁몸에	-10.0911
▁서둘러	-10.0911
▁있겠네요	-10.0911
▁찾았	-10.0911
▁키보드	-10.0911
▁익숙	-10.0911
▁메시지	-10.0911
▁보면서	-10.0914
▁영어로	-10.0916
▁용량	-10.0917
▁장기	-10.0922
았어	-10.0927
▁정도만	-10.0928
▁새벽에	-10.0931
▁벨	-10.0939
▁번역	-10.094
▁원인	-10.0941
▁선수	-10.0943
▁포함된	-10.0945
▁확인이	-10.0946
결	-10.0947
▁불편한	-10.095
줬	-10.0952
▁시작한	-10.0958
철	-10.096
▁제공되	-10.0965
▁돌려	-10.0969
합시다	-10.097
하셨는지	-10.097
▁오른쪽에	-10.0976
▁왔어	-10.098
▁형	-10.0987
▁투	-10.0988
▁구경	-10.0988
▁시간대	-10.0992
봤어	-10.0992
▁없다	-10.0995
▁해드리	-10.0998
▁말아	-10.1008
▁생각이야	-10.1009
▁주문하려고	-10.1016
▁수영	-10.1024
▁이후	-10.1025
▁사무실에	-10.1028
▁어쩌	-10.1035
▁이용해	-10.1035
▁떨어졌	-10.1038
신다면	-10.1043
▁어떡해	-10.105
▁읽어	-10.1058
▁생각에는	-10.1059
▁다행이	-10.1065
▁해주실	-10.1073
▁들어가지	-10.1091
▁규모	-10.1093
▁나쁘지	-10.1093
▁낮은	-10.1093
▁맞게	-10.1093
▁밖으로	-10.1093
▁이어폰	-10.1093
▁중간고사	-10.1093
▁데이터	-10.1093
▁그러는	-10.1093
▁시즌	-10.1093
▁환경	-10.1093
▁로션	-10.1095
▁시킬	-10.1095
▁끝날	-10.1096
▁가능하다	-10.1096
▁둘러보	-10.1096
▁들어갔	-10.1098
▁등산	-10.1101
▁모습	-10.1101
▁구체적으로	-10.1102
▁객실로	-10.1103
줄래	-10.1104
▁저렴하	-10.1105
▁메인	-10.1106
▁한참	-10.1108
▁괜찮나요	-10.1108
▁사유	-10.1121
▁했었	-10.1128
▁그런가	-10.1143
▁사용한	-10.115
▁넣고	-10.1153
▁입으	-10.1153
▁중이야	-10.1153
▁지금부터	-10.1159
▁통과	-10.1166
카드	-10.1169
▁수선	-10.1174
▁그걸로	-10.1192
▁계산할	-10.1192
▁생각하는	-10.1192
▁스트레스	-10.1193
▁공간	-10.1195
▁이유는	-10.1203
▁찍을	-10.1209
자리	-10.1212
▁하던	-10.1212
▁보상	-10.122
▁버스로	-10.1231
▁주시기	-10.1247
▁고장이	-10.126
▁이용하는	-10.1263
▁슬	-10.1263
▁심해	-10.127
▁보냈	-10.127
▁부분에	-10.1271
극	-10.1274
률	-10.1277
▁어쩐지	-10.1278
▁연착	-10.1278
▁멈추	-10.1278
▁품목	-10.1278
▁까먹	-10.1278
▁채널	-10.1278
▁언어	-10.1278
▁친절	-10.1279
▁다음부터는	-10.128
▁무척	-10.128
▁시킨	-10.128
▁한식	-10.1281
▁과목	-10.1282
▁채소	-10.1282
▁가죽	-10.1284
▁변화	-10.1284
▁입학	-10.1287
▁대출	-10.1287
▁기분	-10.1288
되어야	-10.1289
▁사용해	-10.1298
▁공고	-10.1298
▁남성	-10.1298
▁보내드릴게요	-10.1299
▁내고	-10.1301
자는	-10.1301
해보자	-10.1302
▁자리로	-10.131
▁나왔어요	-10.1314
▁제게	-10.1331
▁고민이	-10.1334
▁경우는	-10.1337
▁모르고	-10.1337
▁양해	-10.1338
▁판매하는	-10.134
록	-10.1342
손	-10.1342
▁감기	-10.1345
▁연락해서	-10.1348
▁사진이	-10.1366
▁알려드리	-10.1367
▁있으시	-10.1372
▁공간이	-10.1376
▁중국에서	-10.1386
주시는	-10.1387
▁혼자서	-10.1399
▁쓰면	-10.1408
▁피해	-10.1414
▁하네	-10.1418
역에서	-10.1421
▁적어서	-10.1426
겠다고	-10.1426
▁오늘까지	-10.1441
▁갈아타	-10.1452
▁환불하고	-10.1457
▁많으니	-10.1457
택	-10.1464
털	-10.1466
▁가르쳐	-10.1466
▁늦은	-10.1466
▁떠나	-10.1466
▁버스정류장	-10.1466
▁스파게티	-10.1466
▁짧게	-10.1466
▁짧은	-10.1466
빛	-10.1466
▁납품	-10.1466
▁운송	-10.1467
▁오랫	-10.1468
해드립니다	-10.1468
▁게이트	-10.1469
▁다릅니다	-10.1475
▁세계	-10.1481
▁내년에	-10.1484
▁가족들	-10.1484
되기	-10.1488
▁되니	-10.1518
▁아쉽	-10.1523
▁18	-10.1526
▁심한	-10.1529
잡	-10.1533
▁서점	-10.1535
▁완성	-10.1536
▁메	-10.1536
메	-10.1548
▁없었는데	-10.1555
▁지사	-10.156
▁60	-10.1564
학년	-10.157
개씩	-10.1574
▁문자로	-10.1576
▁무엇이	-10.1582
▁회사와	-10.1593
십니다	-10.1607
▁이직	-10.1608
▁가시	-10.1627
▁전달해	-10.1641
▁괜찮으시	-10.1644
▁여기까지	-10.1647
▁답	-10.1649
▁교환이	-10.1656
술	-10.1657
빙	-10.1658
궁	-10.1659
▁냉동	-10.1659
▁샴푸	-10.1659
▁웹사이트	-10.1659
▁진통제	-10.1659
▁파운데이션	-10.1659
'	-10.1659
▁어딘지	-10.1659
▁흡연	-10.1659
▁품질	-10.1659
▁항공편	-10.166
▁항공	-10.1661
▁성격	-10.1661
▁지난달	-10.1663
▁기름	-10.1664
▁감사해요	-10.1665
▁작가	-10.1668
▁실내	-10.1668
▁대량	-10.1671
▁모르겠습니다	-10.1672
▁신호	-10.1676
▁제품이라	-10.1679
▁겨울	-10.168
▁팀이	-10.168
▁정문	-10.1686
▁메뉴로	-10.1688
▁할인된	-10.1688
하셨는데	-10.1689
었다	-10.169
▁진행하고	-10.1701
▁가보자	-10.1702
▁헤	-10.1705
▁연어	-10.1715
▁유행	-10.1721
▁밖에서	-10.1723
쳐서	-10.1728
▁오일	-10.1731
대요	-10.1737
▁모르니	-10.1742
측	-10.1749
▁상의	-10.175
이었	-10.175
▁카	-10.1751
▁시작하	-10.1754
▁것처럼	-10.1759
으려고	-10.1761
▁써보	-10.1769
▁잠깐만	-10.1772
▁평일	-10.1777
▁편인데	-10.178
▁남는	-10.1784
개만	-10.1794
이었는데	-10.1809
했으니까	-10.1811
▁열이	-10.1812
▁가능하고	-10.1813
▁월요일에	-10.1819
하네	-10.1822
▁했지	-10.1829
▁레	-10.1832
▁평소	-10.1834
▁갈아	-10.1835
였어	-10.184
팀에서	-10.1846
랜	-10.1855
▁낫지	-10.1855
▁복숭아	-10.1855
▁아저씨	-10.1855
▁와이파이	-10.1855
▁토마토	-10.1855
▁셔츠	-10.1855
▁바구니	-10.1855
▁돼지고기	-10.1855
▁그다음	-10.1855
▁설마	-10.1855
▁평균	-10.1855
▁고양이	-10.1855
▁시켰는데	-10.1855
▁숙제	-10.1857
▁취미	-10.1858
▁어떡하죠	-10.1859
▁우산	-10.1861
▁매장이	-10.1861
▁해변	-10.1862
▁조용	-10.1864
▁도장	-10.1864
층에서	-10.1866
▁탈색	-10.1868
▁그렇다고	-10.187
▁부탁드려	-10.1874
▁영업부	-10.1877
▁제외하고	-10.1877
▁세관	-10.1878
▁3,000	-10.1879
▁역사	-10.188
하시겠습니까	-10.1881
▁풀어	-10.1882
▁영화관	-10.1883
▁아내	-10.1886
▁학점	-10.189
▁아무도	-10.1891
▁지방	-10.1892
드렸어요	-10.1897
▁편리	-10.1898
▁원하시면	-10.1913
▁물건들	-10.1914
▁걸려요	-10.1914
▁온도	-10.1915
▁다치	-10.1916
▁반응	-10.1924
해보겠습니다	-10.1928
▁부러	-10.1937
십시오	-10.1944
▁포장이	-10.1945
▁해봐	-10.1947
▁동생	-10.1947
사이즈	-10.1951
하는지	-10.1954
▁복사	-10.1974
했기	-10.198
실로	-10.1985
▁비행	-10.1989
▁끈	-10.199
▁변경해	-10.1998
▁그러게요	-10.1999
▁나오는데	-10.2015
▁가방에	-10.2026
럴	-10.2035
십	-10.2046
▁육	-10.2051
▁주면	-10.2052
▁얼굴이	-10.2052
덕	-10.2055
▁빠진	-10.2055
▁살펴보	-10.2055
▁즐거	-10.2055
▁테스트	-10.2055
▁반찬	-10.2056
▁영양제	-10.2056
▁종합	-10.2056
▁경영	-10.2058
▁창문	-10.2058
▁신상품	-10.2058
났어	-10.2059
▁추석	-10.2063
▁나와요	-10.2065
▁단계	-10.2065
▁여부	-10.2072
▁다녀와	-10.2076
▁말씀드렸	-10.2076
▁모레	-10.2076
▁된다면	-10.2077
▁택배사	-10.2081
▁운전자	-10.2081
▁때부터	-10.2082
▁않지만	-10.2084
▁고객님께서	-10.2086
▁다친	-10.2086
▁경력	-10.2087
놓고	-10.2089
▁종이에	-10.2089
▁초대	-10.2091
▁상관없이	-10.2093
실래요	-10.2095
▁푸	-10.2096
▁튀	-10.2096
▁보려고	-10.21
▁그쪽으로	-10.2105
▁늦어지	-10.2109
▁객실이	-10.2112
▁측	-10.2119
▁쌀	-10.212
▁알겠어요	-10.2127
했다는	-10.2128
▁선호	-10.2142
▁했잖아	-10.2151
▁환	-10.2155
▁이른	-10.2161
합니까	-10.2166
하려	-10.2168
머리	-10.2168
▁맞추	-10.217
▁바꿔야	-10.2174
월에	-10.2176
▁달러	-10.2178
▁생기면	-10.2181
▁후기	-10.2184
▁카페에서	-10.2198
▁살아	-10.2203
시기	-10.2207
▁회사로	-10.2212
▁바라	-10.2213
▁없잖아	-10.2223
▁소식이	-10.2234
▁알려줘	-10.2235
▁좋지만	-10.2236
▁들어보	-10.2238
▁누르	-10.2243
▁머	-10.225
▁마찬가지	-10.2259
▁박람회	-10.2259
▁주민등록증	-10.2259
듬	-10.2259
▁자유롭	-10.2259
▁볶음밥	-10.2259
▁야채	-10.226
▁누락	-10.226
▁면세품	-10.2261
▁불안	-10.2267
▁무역	-10.2269
▁상관없습니다	-10.2273
▁다양하	-10.2274
▁나가면	-10.2283
▁건데요	-10.2295
▁드렸는데	-10.2298
▁뻔했	-10.2308
▁판매량	-10.2312
사님	-10.2313
▁오기	-10.2314
▁의견이	-10.2318
▁식품	-10.2324
▁비자	-10.2328
▁유리	-10.234
▁일요일	-10.2341
▁넣을	-10.2353
▁도착하는	-10.2356
▁내면	-10.2358
숙	-10.2369
▁진행해	-10.2372
▁구역	-10.2374
▁200	-10.2381
▁먹는데	-10.2382
시간에	-10.2388
▁고객들	-10.2393
▁합시다	-10.2402
▁살이	-10.2407
▁일자	-10.2408
회사	-10.2411
▁않으니	-10.2421
▁어떨까	-10.2425
▁목적	-10.243
▁계약이	-10.2441
▁잃어버렸	-10.2443
녀	-10.2443
람	-10.2447
▁쓰지	-10.2459
빌	-10.2461
혈	-10.2461
랐	-10.2462
▁해봐야	-10.2465
켓	-10.2467
▁그렇죠	-10.2467
▁뮤지컬	-10.2467
▁비슷하	-10.2467
▁스포츠	-10.2467
▁해외여행	-10.2467
▁찜질	-10.2467
▁업계	-10.2467
▁물어볼	-10.2468
▁괜찮으실	-10.2468
▁커플	-10.2469
▁접속	-10.2469
▁아파트	-10.2469
▁먹으려고	-10.2471
▁벌금	-10.2472
▁맛있다	-10.2475
걸요	-10.2477
▁육수	-10.2477
▁미루	-10.2477
▁코트	-10.2477
▁단발	-10.2478
▁개인적으로	-10.2482
▁아닌가	-10.2489
▁보지	-10.2489
▁드셨	-10.2491
킬로	-10.2492
▁할인해	-10.2502
▁오르	-10.2507
▁걸리지	-10.2511
▁성과	-10.2512
▁잡으	-10.2515
▁그러지	-10.2515
▁독일	-10.2517
▁성적이	-10.2525
해주시는	-10.2537
▁없으니까	-10.2539
시니까	-10.2551
▁구매하면	-10.2553
▁역할	-10.2559
▁정상	-10.2561
▁먹을까	-10.2565
▁서비스로	-10.2571
▁심해서	-10.2573
▁자체가	-10.2573
▁발생하	-10.2587
▁힘들어서	-10.2588
맛	-10.2588
탈	-10.2589
▁가능하니	-10.2591
순	-10.2591
명인데	-10.2606
▁부모님이	-10.2608
했잖아	-10.261
▁사장님이	-10.2613
▁달리	-10.2623
▁그러고	-10.2628
▁같네	-10.2638
▁불만	-10.2643
▁먹어봐	-10.2654
▁성분이	-10.2655
으실	-10.2655
▁경쟁	-10.2655
▁있다	-10.2658
족	-10.2662
하겠다	-10.2665
▁실력	-10.2669
활	-10.2675
턴	-10.2677
▁듣기	-10.2679
딩	-10.268
▁붙이	-10.268
▁잃어버린	-10.268
껏	-10.268
▁기다릴	-10.268
▁챙기	-10.268
▁심지어	-10.268
▁드라이	-10.268
▁미안하지만	-10.2681
▁별도로	-10.2681
▁새롭	-10.2682
▁가까이	-10.2682
▁당연하죠	-10.2682
▁측정	-10.2685
▁진열되어	-10.2685
▁차례	-10.2685
▁경쟁사	-10.2686
▁보낸	-10.2687
▁기침	-10.2689
▁화려	-10.269
▁동전	-10.2693
▁발행	-10.2694
▁어렵지	-10.2696
▁안으로	-10.2697
던가요	-10.2698
▁불량	-10.27
▁나누어	-10.2703
▁마치	-10.2706
▁인정	-10.2717
▁용기	-10.2723
▁아동	-10.2725
▁시간표	-10.2733
▁계시면	-10.2736
▁포기	-10.2737
▁이후로	-10.2737
▁지하철역이	-10.2742
하려는데	-10.2746
▁코너에	-10.2747
▁영	-10.2757
▁확인해야	-10.2758
▁지연	-10.2764
▁해주셔야	-10.2777
▁북	-10.2806
팩	-10.281
밤	-10.2819
▁페이지	-10.2827
▁교환하고	-10.2838
▁가격으로	-10.2851
▁글쎄	-10.2855
▁있네	-10.2855
해야겠다	-10.2864
▁필요해서	-10.287
▁알겠어	-10.2872
▁나오고	-10.2878
▁늦었	-10.2879
하셨습니다	-10.288
▁종일	-10.2881
보시겠어요	-10.2884
략	-10.2887
▁기내에	-10.2888
▁않으셨	-10.2892
▁빨간	-10.2894
▁벗어	-10.2897
▁샌드위치	-10.2897
▁앉으	-10.2897
▁픽업	-10.2897
▁멋진	-10.2897
▁사전	-10.2897
▁바쁜	-10.2899
▁해드려	-10.2901
▁커트	-10.2904
증이	-10.2908
▁코드	-10.2909
▁공연이	-10.2913
▁간단하게	-10.2916
▁배우들	-10.2916
▁보여주시면	-10.2918
▁없는데요	-10.2927
▁지났	-10.2927
▁어디인지	-10.2933
▁화가	-10.2937
▁세부	-10.2938
▁번씩	-10.2939
▁혜택이	-10.294
▁목이	-10.2948
▁기존에	-10.2958
▁간다고	-10.2958
▁도서관에서	-10.2964
▁거라서요	-10.2973
▁담요	-10.2991
느	-10.2993
▁들지	-10.2997
▁됐어요	-10.3001
▁김에	-10.3006
▁전기	-10.3013
▁결제할	-10.3022
겠는데요	-10.3024
▁싶으신	-10.3029
▁70	-10.3031
▁청소기	-10.3034
베	-10.3036
옷	-10.3037
▁생각하지	-10.3043
▁나고	-10.305
▁해보고	-10.3073
▁얘기해	-10.3073
▁혜택	-10.3076
▁그려	-10.308
하거나	-10.3085
▁떨어져	-10.3094
▁않았나	-10.3097
▁교환해	-10.3105
▁년	-10.3113
▁기억나	-10.3114
찜	-10.3119
▁맞고	-10.312
▁스케줄	-10.312
▁젊은	-10.312
▁찢어	-10.312
▁자격증	-10.312
▁미술	-10.312
▁보내주실	-10.312
▁일회용	-10.3123
▁외근	-10.3123
▁싶었	-10.3126
▁누워	-10.3127
▁통역	-10.3127
▁어릴	-10.3131
▁15,000	-10.3135
▁지출	-10.3136
▁대표	-10.3137
▁선정	-10.314
▁소화	-10.3145
▁팬	-10.3146
▁나왔습니다	-10.3147
▁알려줄	-10.3149
▁젤	-10.3152
▁들어와서	-10.3153
▁하더라고요	-10.3153
▁부족해서	-10.3154
▁원두	-10.3155
▁병원에서	-10.3156
▁보여요	-10.3156
▁충전기	-10.3157
▁확인해보세요	-10.3158
▁어려워요	-10.3158
▁정차	-10.317
▁좋아해	-10.318
▁이쪽에	-10.3182
▁어쩌지	-10.3184
▁때문이	-10.3195
▁아니니	-10.3211
▁못할	-10.3211
▁보시겠어요	-10.3218
▁이따	-10.3222
▁문제없	-10.3222
하신다고	-10.3222
▁보통은	-10.3232
▁작성해야	-10.3241
분들이	-10.3247
▁시내에	-10.3249
셨으니	-10.3251
▁음	-10.3259
씨	-10.3267
▁오실	-10.3272
▁존	-10.3273
▁해줘	-10.3274
번째	-10.3286
▁몰랐	-10.329
▁봤을	-10.3303
았습니다	-10.3305
▁좋게	-10.3307
▁13	-10.331
역까지	-10.3315
▁장면	-10.3324
▁나누	-10.3328
▁보내드릴	-10.3332
▁촬영이	-10.3333
▁악	-10.3337
▁방식	-10.334
▁불편해	-10.3344
▁입구에	-10.3344
▁이용하면	-10.3345
▁쓰레기	-10.3345
널	-10.3346
▁흥미	-10.3347
▁기말고사	-10.3347
샵	-10.3347
▁도입	-10.3347
▁올라오	-10.3347
▁할머니	-10.3347
▁손가락	-10.3347
▁협력	-10.3347
▁검수	-10.3347
▁언니	-10.3347
▁반대쪽	-10.3348
▁목록	-10.3348
▁커버	-10.3349
▁사용하면	-10.335
▁결국	-10.3351
▁대충	-10.3354
▁길게	-10.336
▁보여주시겠어요	-10.3361
▁귀사	-10.3362
▁지속	-10.3364
▁모임	-10.3364
▁무엇인지	-10.3365
▁근처에서	-10.3366
▁김치	-10.3368
▁온천	-10.3373
▁상대	-10.338
▁떼	-10.3387
▁정식	-10.3391
▁생각해보	-10.3397
▁상사	-10.34
▁안쪽	-10.3412
▁입어보고	-10.3423
▁매점	-10.3434
▁갈게요	-10.3435
▁걸려서	-10.3438
▁맞는지	-10.344
식품	-10.345
▁된다는	-10.3452
▁봉투	-10.3457
▁걸까요	-10.3472
▁비싸서	-10.3476
▁팀원	-10.3485
끼	-10.3502
밀	-10.3502
확	-10.3507
▁무대	-10.3509
▁방문해	-10.3509
시켜	-10.351
▁기다리면	-10.3514
▁점은	-10.3516
▁영화는	-10.3518
▁이곳에	-10.353
▁통장	-10.353
려나	-10.3533
▁미안	-10.3541
박스	-10.3541
해주시기	-10.3542
▁주십시오	-10.3544
▁부서에	-10.355
▁재미	-10.3556
▁제품입니다	-10.357
▁없었어	-10.3572
협	-10.3578
떡	-10.3578
▁모아	-10.3579
범	-10.3579
엄	-10.3579
▁놀이공원	-10.3579
▁빠졌	-10.3579
▁있거든	-10.3579
▁헷갈리	-10.3579
▁그러시군요	-10.3579
▁어려우	-10.3579
▁태풍	-10.3579
▁답변	-10.358
▁필수	-10.358
▁착각	-10.358
▁시원한	-10.358
▁다녀올	-10.3581
▁즉석	-10.3581
▁변동	-10.3586
▁항목	-10.3588
▁왼쪽에	-10.359
▁보호	-10.3591
▁가나요	-10.3594
▁방안	-10.3598
▁재질	-10.36
해주셔야	-10.3601
▁인식	-10.3604
져요	-10.3612
▁보다	-10.362
▁가게에	-10.3627
▁괜찮지	-10.3633
▁그만큼	-10.3633
▁부탁합니다	-10.3635
▁하시나요	-10.364
▁환불해주세요	-10.364
▁이용해서	-10.3645
▁내셔야	-10.3657
▁사전에	-10.3668
▁사정이	-10.3672
▁중이라서	-10.3678
▁칼	-10.368
해볼까	-10.3681
▁모르겠다	-10.3687
▁무인	-10.3687
▁뒤쪽	-10.3688
▁만나는	-10.3689
▁예약하려고	-10.369
▁요가	-10.3694
▁한류	-10.3695
곳	-10.3696
▁2,000	-10.3701
웠어	-10.3705
▁밑에	-10.3708
▁들어요	-10.3709
으며	-10.3714
▁증	-10.3717
▁문서	-10.3721
▁반지	-10.3727
▁가져	-10.3728
석이	-10.3728
볼래	-10.373
없이	-10.3742
클	-10.3752
▁주문해	-10.3758
해줄	-10.3759
▁공항으로	-10.3775
▁배우고	-10.3781
다른	-10.3786
자료	-10.3792
▁부모님께	-10.3796
▁얼굴에	-10.38
척	-10.3812
봐야겠다	-10.3812
▁있더라	-10.3817
▁딸기	-10.3818
▁멀미	-10.3818
▁번거롭	-10.3818
▁봅시다	-10.3818
▁잊지	-10.3818
▁마우스	-10.3818
▁표지판	-10.3818
▁범위	-10.3818
▁뿌리	-10.3818
▁휴식	-10.3818
▁즐기	-10.3818
▁튀김	-10.3818
▁잔뜩	-10.3818
▁승진	-10.3818
리스	-10.3818
▁피곤하	-10.3818
▁도시락	-10.3819
▁구비되어	-10.3819
▁다행이에요	-10.3819
분들께	-10.3819
▁앞머리	-10.382
▁무서워	-10.382
▁취직	-10.3821
▁위반	-10.3821
되었는지	-10.3822
▁하시고	-10.3824
▁관계	-10.3825
▁만날	-10.3826
▁어렸	-10.3829
▁가능하지만	-10.3832
▁신어보	-10.3832
▁불러주세요	-10.3836
▁상세	-10.3837
었고	-10.3845
▁은행에	-10.3846
시거나	-10.3849
▁없는지	-10.3849
▁조치	-10.3849
▁바꿔주세요	-10.385
▁모집	-10.3854
▁대화	-10.3861
▁손상	-10.3866
▁닭	-10.3867
▁하차	-10.3873
▁준비해야	-10.3881
▁달러로	-10.3882
▁시작할	-10.3888
▁모르니까	-10.3898
▁들려	-10.3898
일로	-10.3901
▁발급받	-10.3903
▁편할	-10.3907
▁틀어	-10.3915
▁채워	-10.3918
다니까	-10.3921
▁인터넷에	-10.3921
▁상황에	-10.3921
됐습니다	-10.394
명세	-10.394
하더라	-10.3941
▁상관	-10.3946
▁배송해	-10.3947
▁뒤쪽에	-10.3951
▁입맛에	-10.3959
▁거울	-10.3962
▁드신	-10.397
▁떨어	-10.399
하시려면	-10.3998
▁방해	-10.4003
▁걸렸	-10.4006
시험	-10.4011
▁손님들이	-10.4015
하십니까	-10.4018
됐어요	-10.402
▁나지	-10.4026
▁피부에	-10.4033
스럽게	-10.404
신다고	-10.4041
례	-10.4043
▁유명하	-10.4047
▁되었어요	-10.4048
▁오자	-10.4048
짝	-10.4057
핑	-10.4061
▁같기	-10.4061
▁논의	-10.4061
▁많네요	-10.4061
▁스티커	-10.4061
▁웬만	-10.4061
꼬	-10.4061
▁세미나	-10.4061
▁데려다	-10.4061
,500	-10.4062
▁골목	-10.4062
▁다행입니다	-10.4062
▁동아리에	-10.4064
▁면허증	-10.4064
▁아쉽지만	-10.4066
▁결혼식	-10.4067
▁물어봤	-10.4067
▁주부터	-10.4068
▁발목	-10.4068
▁원하시나요	-10.4074
▁쉬는	-10.4075
▁찾아오	-10.4075
▁집안	-10.4076
▁물품이	-10.4077
▁직진	-10.4079
▁가득	-10.408
▁따라오	-10.408
▁아니라면	-10.4082
▁조용히	-10.4082
▁해줄	-10.4084
▁19	-10.4087
▁물어보자	-10.409
▁사람인데	-10.4092
▁상당	-10.4092
율	-10.41
상품	-10.4101
▁도착했	-10.4108
▁성장	-10.411
▁지워	-10.4112
었지	-10.412
▁생각하세요	-10.4124
▁사회	-10.4136
었나	-10.414
▁걸리는데	-10.4142
되었는데	-10.4158
▁받아볼	-10.416
달러입니다	-10.4164
▁홈페이지에서	-10.4167
▁사이트에서	-10.4167
버렸	-10.4168
▁신발이	-10.4172
▁갈게	-10.4172
▁시험이	-10.4177
▁끝나는	-10.4182
▁예정이라	-10.4187
▁오라고	-10.4188
▁성분	-10.4193
▁말해주세요	-10.4195
▁한대	-10.4197
두고	-10.42
▁똑같이	-10.4216
▁어려워	-10.4218
▁하던데요	-10.4228
▁미국에서	-10.4233
▁지난주	-10.4241
늘	-10.4247
▁모르겠	-10.4251
▁팀에서	-10.4278
▁작동이	-10.428
보험	-10.4281
▁수요일에	-10.4281
▁실제	-10.4286
▁해주시고	-10.4286
▁수속	-10.4286
▁놔	-10.4288
▁효과적	-10.4288
회에	-10.4292
▁배달이	-10.4292
▁도서관에	-10.4295
▁잡지	-10.4302
▁가져왔	-10.4303
▁비타민	-10.4311
▁케이스	-10.4311
▁콘퍼런스	-10.4311
짓	-10.4311
▁닭고기	-10.4312
▁귀걸이	-10.4312
▁복잡해	-10.4312
▁오픈	-10.4314
▁가능하십니다	-10.4314
▁신선	-10.4314
▁종료	-10.4314
납니다	-10.4315
▁대학생	-10.4315
▁초밥	-10.4315
▁봉지	-10.4316
▁조립	-10.4316
쯤에	-10.4318
▁가능합니다만	-10.4319
▁21	-10.432
▁저기에	-10.432
▁소설	-10.4322
▁라인	-10.4323
▁예정이에요	-10.4327
▁손해	-10.4333
▁늘리	-10.4342
▁16	-10.4342
▁예쁘게	-10.4349
▁사무	-10.4356
▁어려워서	-10.4362
▁팔리	-10.437
▁괜찮으니	-10.437
▁않아서요	-10.4374
된다	-10.4379
▁없다면	-10.4385
▁끝에	-10.4385
▁호텔로	-10.439
▁했으면	-10.439
▁주문서	-10.4393
▁있다니	-10.4393
▁사용하시면	-10.4398
▁신청서	-10.4399
▁선생님이	-10.4402
▁비싼데	-10.4405
▁외국에서	-10.4413
▁줄여	-10.4415
이었어	-10.4416
▁방수	-10.4417
▁고쳐	-10.4424
놨어	-10.4424
▁마시는	-10.4428
30	-10.4431
▁계약서에	-10.4432
▁쉬고	-10.4443
▁여러분	-10.4444
▁들어가야	-10.4449
분기	-10.4451
▁마케팅팀	-10.4454
▁기억하	-10.4457
▁그런가요	-10.4461
▁착용해	-10.4466
▁취소해야	-10.4476
▁못했습니다	-10.4476
었거든	-10.449
▁군	-10.4493
▁찾아볼게	-10.4509
노	-10.4519
▁유통기한	-10.452
벨	-10.4521
▁배송지	-10.453
▁이름으로	-10.4551
▁라면	-10.4561
쿠	-10.4568
▁꼼꼼하	-10.4568
▁땅콩	-10.4568
▁매표소	-10.4568
▁솔직히	-10.4568
▁업그레이드	-10.4568
▁잃어버리	-10.4568
▁있겠지	-10.4568
슈	-10.4568
쾌	-10.4568
▁뉴욕	-10.4568
색이	-10.4568
▁부서에서	-10.4569
▁능력	-10.4569
▁불고기	-10.4569
▁취향	-10.4569
▁신기하	-10.4572
▁버거	-10.4573
▁증정	-10.4573
▁버전	-10.4574
▁진행되는	-10.4576
▁근력	-10.4576
▁불가합니다	-10.458
▁맛집	-10.4582
▁소음	-10.4585
▁비품	-10.4586
▁감소	-10.4588
▁올라가시면	-10.4594
▁지하철로	-10.4598
▁몰랐네요	-10.4603
▁고객센터	-10.4603
▁넣었	-10.4605
▁유통기한이	-10.4616
▁교환할	-10.4616
▁부탁해요	-10.4617
▁수당	-10.4619
시쯤에	-10.4619
▁개선	-10.4622
▁나네요	-10.4628
▁장점	-10.463
▁계산서	-10.4638
▁보내는	-10.4644
▁좋겠는데요	-10.4649
▁당신이	-10.4657
시간이나	-10.4665
▁내에서	-10.4668
없	-10.4672
었으니	-10.4676
▁로비에	-10.4677
▁가족이	-10.4679
▁팀장님께	-10.4685
▁없다는	-10.4694
▁여기서부터	-10.4704
▁했나	-10.4709
▁14	-10.471
▁번호로	-10.4713
하려는	-10.4729
▁주방에	-10.4734
▁한다면	-10.474
했네	-10.4756
▁등이	-10.476
▁부족하	-10.4769
▁일주일에	-10.4777
▁안건	-10.4788
▁저렴해	-10.4791
돌	-10.4791
▁많다	-10.4794
님께서	-10.4797
▁0	-10.4802
▁가격에	-10.4813
스러운	-10.4818
농	-10.4831
뷰	-10.4831
쇼	-10.4831
▁같군요	-10.4831
▁바닷가	-10.4831
▁오토바이	-10.4831
▁적혀있는	-10.4831
▁어두운	-10.4831
▁희망	-10.4831
▁재킷	-10.4831
▁사우나	-10.4831
▁손톱	-10.4831
▁알기로는	-10.4831
▁법인카드	-10.4832
▁야간	-10.4835
▁우편	-10.4836
▁의류	-10.4837
▁도난	-10.4837
▁상승	-10.4838
했었어	-10.4839
▁출산	-10.484
▁시작하는	-10.484
▁현금이	-10.4841
▁다행이다	-10.4845
▁경제	-10.4845
▁날에	-10.4847
▁저런	-10.4848
▁해지	-10.4852
▁셋	-10.4852
▁성사	-10.4852
▁신문	-10.4857
▁사장님께서	-10.4861
▁동물원	-10.4861
▁잃어버렸는데	-10.4862
▁복도	-10.4863
하시죠	-10.4867
▁났는데	-10.4871
▁생겼는데	-10.4876
했거든요	-10.4881
받아	-10.4885
었을	-10.4887
▁스타일이	-10.4888
▁일본어	-10.489
▁내린	-10.4891
▁저의	-10.4894
▁있었나요	-10.4899
▁배치	-10.4899
▁몰랐어요	-10.4901
▁걸어가면	-10.4904
▁그래야	-10.4918
▁편해	-10.4923
▁토요일에	-10.4928
▁어렵고	-10.4933
▁알았어요	-10.4936
▁받으신	-10.4936
▁명의	-10.4939
▁개별	-10.494
▁수익	-10.494
▁알려드릴	-10.4944
▁합의	-10.4944
▁순서	-10.4949
▁관해서	-10.4953
▁마리	-10.4963
▁세우	-10.4963
▁고수	-10.4967
▁거기까지	-10.5011
▁없나	-10.5015
었잖아	-10.5018
드려야	-10.5028
5,000	-10.5041
▁공부하	-10.5048
▁본인이	-10.5056
▁있으십니	-10.5062
▁규정이	-10.5065
▁넣는	-10.5065
▁기다리는	-10.5072
놔	-10.5074
▁했으니	-10.5082
▁기기	-10.5091
였어요	-10.5094
혔	-10.51
좌	-10.51
흔	-10.5101
▁블랙	-10.5101
▁애플리케이션	-10.5101
▁고맙습니다	-10.5101
▁늦지	-10.5101
▁맡길	-10.5101
▁샀어	-10.5101
▁소프트웨어	-10.5101
▁어떠한	-10.5101
▁인터뷰	-10.5101
▁있겠다	-10.5101
▁하므로	-10.5101
랄	-10.5101
▁아름다	-10.5101
▁태국	-10.5101
▁어려웠	-10.5101
▁증빙	-10.5102
▁투숙	-10.5102
▁계열	-10.5103
▁리스트	-10.5103
▁나야	-10.5109
▁전철	-10.5111
▁가져왔는데	-10.5112
되었다고	-10.5117
▁지키	-10.5117
▁객실에	-10.512
▁갈아타야	-10.5124
▁베개	-10.5125
▁무선	-10.5126
▁드려야	-10.5127
▁걱정했는데	-10.5129
▁예정이니	-10.513
▁시설이	-10.5132
▁시원하	-10.5134
▁걸린	-10.5142
▁가구	-10.5149
▁많으니까	-10.515
졌습니다	-10.5152
▁글쎄요	-10.5155
▁궁금해	-10.5159
▁유명해	-10.516
됐는데	-10.516
▁했었는데	-10.5163
▁좋죠	-10.517
▁없었어요	-10.5177
▁상태로	-10.5199
▁궁금해서	-10.5201
▁구경하	-10.5204
▁굴	-10.521
▁저렴	-10.5214
▁사원들	-10.5218
▁말씀드려	-10.5219
▁말해주	-10.522
000	-10.5227
▁늘려	-10.5236
▁안경	-10.524
해야겠어	-10.5243
▁번이나	-10.5253
원인데	-10.5253
▁사이트에	-10.5258
▁상관이	-10.5258
▁받기	-10.526
▁준비할	-10.5261
▁쉽	-10.5269
▁어디까지	-10.5269
▁것인지	-10.5269
▁동일한	-10.527
▁지하철에서	-10.5294
▁환불해	-10.5297
원씩	-10.53
우면	-10.5306
▁놀랐	-10.5313
▁계산해	-10.5327
▁찍어주실	-10.5331
해준	-10.5334
▁찍으	-10.5337
▁시기	-10.5338
▁깔	-10.5342
현	-10.5347
▁옷들	-10.5348
▁강남	-10.5349
혼	-10.5351
▁확인해봐	-10.5353
▁여분	-10.5354
▁동네에	-10.5365
희	-10.5365
▁점심시간에	-10.5368
▁액체	-10.5378
퇴	-10.5378
▁거기에서	-10.5378
▁뒷자리	-10.5379
▁디자이너	-10.5379
▁어제저녁	-10.5379
▁캐리어	-10.5379
▁포스터	-10.5379
섬	-10.5379
휘	-10.5379
▁비어있	-10.5379
▁가능하신데	-10.5379
▁렌트	-10.5379
▁목걸이	-10.5379
▁승차	-10.5379
▁겨우	-10.5379
▁단골	-10.5381
▁안타깝지만	-10.5381
▁카레	-10.5381
▁파손	-10.5382
▁즉	-10.5382
▁입학식	-10.5383
▁올랐	-10.5383
▁양말	-10.5383
▁선배	-10.5384
▁떨어진	-10.5385
▁대표님	-10.5385
▁삼성	-10.5391
▁제품인데	-10.5393
▁유료	-10.5393
▁났어요	-10.5393
▁됐어	-10.5395
▁아플	-10.5399
▁자네	-10.5399
▁쉬운	-10.5403
▁도전	-10.5406
▁전날	-10.5406
▁말씀드릴게요	-10.5406
하셨으면	-10.5407
었네요	-10.541
▁수량이	-10.541
▁그만두	-10.541
▁운영하는	-10.5412
▁연예인들	-10.5412
▁언제든지	-10.5413
▁보셨나요	-10.5415
▁들었는데요	-10.5415
▁위주	-10.5417
▁많다고	-10.5418
▁보내야	-10.5429
▁대학원	-10.5447
▁걸어야	-10.5449
▁들어와	-10.545
었다고	-10.5452
되었네요	-10.5456
▁어려운데	-10.5475
▁대단하	-10.5477
▁손에	-10.5478
▁상태라	-10.5493
▁들을	-10.5494
▁서울에서	-10.5499
▁숙	-10.5502
▁달부터	-10.5513
▁취소할	-10.5521
▁가격대	-10.5521
▁가요	-10.5522
▁고객이	-10.5525
▁봉투에	-10.5528
분께서	-10.5531
거야	-10.5535
▁복지	-10.5539
▁공항까지	-10.5553
▁냈	-10.5564
▁음식물	-10.5572
▁방에서	-10.5581
▁교수님이	-10.5581
▁관광지	-10.5586
▁되잖아	-10.5592
▁쓰기	-10.5601
호실	-10.5617
▁35	-10.5624
▁일할	-10.5627
▁은행에서	-10.5629
▁겨울에	-10.5634
▁재무	-10.5634
▁가져다드릴	-10.5639
▁회의에서	-10.5647
▁도서	-10.5648
육	-10.5649
김	-10.5649
▁과정	-10.5657
▁아이디	-10.5657
▁택배로	-10.5658
하시네요	-10.5663
신청	-10.5664
벤	-10.5665
징	-10.5665
▁빨라	-10.5665
▁삼겹살	-10.5665
▁특성	-10.5665
▁프린터	-10.5665
▁필라테스	-10.5665
홀	-10.5665
▁맞았	-10.5665
▁스페인	-10.5665
▁청바지	-10.5665
▁어린아이	-10.5665
▁납부	-10.5665
▁서랍	-10.5666
▁정수기	-10.5666
▁동물	-10.5667
▁팔찌	-10.5668
▁여태	-10.567
▁만난	-10.5671
▁있으십니까	-10.5671
▁창구	-10.5671
▁흔들리	-10.5674
주일	-10.5675
▁지불하	-10.5675
▁명함	-10.5675
▁출동	-10.5676
▁사라졌	-10.5681
▁직원들에게	-10.5683
▁음주	-10.5684
집니다	-10.5684
▁있으실	-10.5686
▁놓치	-10.5687
▁생신	-10.5689
▁가격표	-10.5691
▁방학	-10.5692
▁오게	-10.5694
▁기차역	-10.5697
▁거잖아	-10.5697
▁물어보는	-10.5699
▁열리는	-10.5701
▁진행되고	-10.5707
▁사인	-10.5717
▁누르면	-10.5718
▁놔두	-10.5721
▁소진	-10.5725
▁임시	-10.5728
▁운영하고	-10.5729
▁놀랐어	-10.5734
▁구워	-10.5745
▁좋아해요	-10.5748
▁택배비	-10.5751
▁드린	-10.5768
▁늦어서	-10.5773
▁시스템이	-10.578
▁봤어요	-10.5782
▁참석하	-10.5782
▁마시면	-10.5785
▁맛있는데	-10.5787
▁받았어	-10.581
▁말하면	-10.5812
▁오겠습니다	-10.5821
▁시대	-10.5829
▁소개해	-10.5836
▁처음인데	-10.5849
▁찬	-10.585
하던데	-10.5862
▁로비	-10.5864
▁올게	-10.5867
▁적용되	-10.5867
▁바닥	-10.5882
▁어떡하	-10.589
▁있겠어	-10.5916
블	-10.5933
되어있는	-10.5934
머	-10.5935
▁기다렸	-10.594
▁사장님께	-10.5943
▁고객님께	-10.5952
콤	-10.5954
념	-10.5955
컬	-10.5959
▁구입하	-10.5959
▁그렇네요	-10.5959
▁긍정적	-10.5959
▁설거지	-10.5959
▁숟가락	-10.5959
▁출퇴근	-10.5959
▁티브이	-10.5959
▁패키지	-10.5959
땅	-10.5959
렁	-10.5959
톤	-10.5959
▁보증금	-10.5959
▁즐길	-10.5959
▁화이트	-10.5959
▁견인	-10.596
▁대단한	-10.5961
▁극장	-10.5961
▁식후	-10.5962
▁세탁기	-10.5963
▁찬성	-10.5963
▁알아요	-10.5964
▁조각	-10.5966
▁돌아다니	-10.5967
▁판단	-10.5967
▁상영	-10.5969
▁연결해	-10.597
▁증상이	-10.5974
▁인형	-10.5978
▁증명서	-10.5979
▁작아서	-10.5982
하십니다	-10.5983
▁확인해보겠습니다	-10.5983
▁휴게실	-10.5983
▁소비자들	-10.5986
▁나요	-10.5987
▁50,000	-10.5991
▁했지만	-10.5995
▁17	-10.5996
▁이용권	-10.5996
▁깜빡하고	-10.5999
▁그랬는데	-10.5999
놨는데	-10.6
▁정산	-10.6
▁남았어	-10.6001
▁복용하	-10.6004
▁임원	-10.6007
▁떨어져서	-10.601
▁읽어보	-10.6015
▁진료비	-10.6022
▁배정	-10.6028
▁바닥에	-10.6038
했나	-10.6044
▁되세요	-10.6045
▁결제하시면	-10.607
듯이	-10.6072
돼요	-10.6072
▁생각하는데	-10.6073
▁가시나요	-10.6088
해드려요	-10.6089
▁좋아할	-10.609
▁경기장	-10.6093
▁편입니다	-10.6102
▁수정할	-10.6119
▁끝나서	-10.6136
▁완료되	-10.6162
▁신용카드로	-10.6163
▁안심	-10.6177
▁비해	-10.6177
냐고	-10.618
▁아니지	-10.6206
▁진행되	-10.6207
▁에어컨이	-10.6208
▁핸드폰으로	-10.6224
▁색상으로	-10.6225
▁갑니다	-10.6232
해드리면	-10.6239
▁싶었어	-10.6249
▁상한	-10.6254
균	-10.6261
폰	-10.6262
탑	-10.6262
▁팝콘	-10.6262
▁블라우스	-10.6262
▁블로그	-10.6262
▁비빔밥	-10.6262
▁비슷해	-10.6262
▁예뻐서	-10.6262
▁옵션	-10.6262
▁착륙	-10.6262
▁채식주의자	-10.6262
▁카운터	-10.6262
▁캐릭터	-10.6262
▁콧물	-10.6262
▁당분간	-10.6262
▁깔끔하	-10.6262
▁자연스럽게	-10.6262
▁멋있	-10.6262
▁커튼	-10.6262
▁복잡하	-10.6262
▁가져올	-10.6263
▁이내로	-10.6263
▁실험	-10.6263
▁축하드립니다	-10.6263
▁속옷	-10.6264
▁있으며	-10.6266
▁가까워	-10.6266
▁계란	-10.6267
▁지참	-10.6267
▁이륙	-10.6268
▁기초	-10.6269
결제	-10.6271
▁늦어질	-10.6273
▁반송	-10.6273
▁간판	-10.6275
▁기차표	-10.6275
▁조율	-10.6275
▁가져와	-10.6277
▁괜찮으면	-10.6282
▁미만	-10.6283
▁진정	-10.6285
▁그러시는	-10.6288
▁중심	-10.6289
▁개설	-10.6289
▁어렵네요	-10.6293
▁그러세요	-10.6293
▁여긴	-10.6297
▁안내소	-10.6298
▁늘어나	-10.6303
▁인원수	-10.6304
▁작게	-10.6304
▁통로	-10.6306
▁길어서	-10.6306
▁만나기	-10.6306
▁사거리	-10.6307
▁마치고	-10.6315
▁드렸	-10.6317
▁거절	-10.6319
▁30,000	-10.6319
▁와주세요	-10.632
▁보시는	-10.6322
▁되겠다	-10.6323
했지	-10.6323
▁기운	-10.6329
▁보내줄	-10.6332
율이	-10.6338
했거든	-10.6338
▁궁금한데	-10.6339
▁부어	-10.634
▁없던데	-10.6344
▁제공하고	-10.635
▁차단	-10.6352
해봤어	-10.6356
▁공연장	-10.6357
시려면	-10.6379
▁정류장에	-10.638
해보려고	-10.6385
8,000	-10.6393
▁준비하고	-10.64
▁확인했는데	-10.6413
▁불편해서	-10.642
▁잡고	-10.6428
▁비율	-10.6429
▁시작되	-10.6433
▁밑	-10.6439
▁동생이	-10.644
▁색으로	-10.6456
▁바꾸려고	-10.6464
▁만났	-10.6469
▁화요일에	-10.6473
▁나올까	-10.6475
왔는데	-10.6476
▁바르는	-10.6505
▁신청하면	-10.6512
▁강한	-10.6516
▁조건이	-10.6518
▁완료되었	-10.6536
뻔	-10.6544
▁구매하는	-10.655
하셨네요	-10.6552
▁작가님	-10.6555
변	-10.656
▁시일	-10.6561
▁느껴	-10.6566
▁응급	-10.6567
꾸	-10.6567
▁건너편에	-10.6568
▁환영	-10.6568
힐	-10.6573
▁같더라	-10.6574
흥	-10.6574
혜	-10.6574
▁그러셨군요	-10.6574
▁깨끗하	-10.6574
▁논문	-10.6574
▁늦으	-10.6574
▁승객	-10.6574
▁저렇게	-10.6574
▁젓가락	-10.6574
▁착오	-10.6574
▁프런트	-10.6574
▁프린트	-10.6574
▁내일모레	-10.6574
▁뿌듯	-10.6574
▁잘됐네요	-10.6575
▁어묵	-10.6575
▁돈가스	-10.6575
▁식탁	-10.6576
▁머물	-10.6578
▁처방전	-10.658
▁경유	-10.658
▁회장님	-10.658
▁모르지만	-10.6584
▁확보	-10.6585
풀	-10.6586
▁뜯어	-10.6586
악	-10.6586
▁대답	-10.6587
갈비	-10.6587
탄	-10.6588
▁전환	-10.6592
▁번호표	-10.6593
▁기다리세요	-10.6594
▁받았습니다	-10.6594
▁분류	-10.66
▁공식	-10.6601
▁배워	-10.6608
▁돌리	-10.6613
▁확실하지	-10.6616
▁견적서	-10.663
▁주소지	-10.6633
▁다름	-10.6634
▁면세점에	-10.6645
▁제출해야	-10.6649
소스	-10.6656
▁문제라도	-10.6662
▁차감	-10.6666
▁정부	-10.6672
▁확인했	-10.6681
▁찾아보고	-10.6682
▁보내주신	-10.6692
▁얼마인지	-10.6704
▁머리카락이	-10.6713
▁입구에서	-10.6714
▁괜찮고	-10.6724
▁조심해야	-10.6735
했지만	-10.6748
▁전신	-10.6751
▁동일	-10.6763
▁어제부터	-10.6776
▁옛날에	-10.6788
▁내시면	-10.679
▁환불받	-10.68
▁알려줄게	-10.6839
▁전화드렸	-10.6846
▁도착하지	-10.6852
▁제출해	-10.6865
둬	-10.6866
▁구할	-10.6889
련	-10.6891
▁준비되	-10.6892
맵	-10.6894
맥	-10.6897
곱	-10.6897
촌	-10.6897
▁걷기	-10.6897
▁느꼈	-10.6897
▁바뀌어서	-10.6897
▁얼룩	-10.6897
▁있겠습니다	-10.6897
▁재입고	-10.6897
▁칭찬	-10.6897
▁프랑스	-10.6897
핀	-10.6897
▁섭취	-10.6897
▁하반기	-10.6897
▁협업	-10.6897
▁심각한	-10.6897
▁줄어들	-10.6897
▁흘리	-10.6897
▁듣기로는	-10.6898
▁매운맛	-10.6898
▁공항버스	-10.6899
▁감독	-10.6899
▁영국	-10.6899
▁리필	-10.69
▁머무	-10.6901
▁휴지	-10.6901
▁태워	-10.6904
▁녹차	-10.6905
▁더러워	-10.6907
▁부채	-10.6907
▁짜증	-10.6909
▁요청한	-10.6913
▁기종	-10.6914
▁다르지만	-10.6917
▁물어보세요	-10.6918
알	-10.6922
▁발전	-10.6922
▁시티	-10.6924
따라	-10.6927
▁찾아보자	-10.6927
봐야겠어요	-10.6931
▁두피	-10.6936
▁춤	-10.6944
▁보조	-10.6949
▁방식으로	-10.695
▁시행	-10.695
▁나라에서	-10.6951
▁사람한테	-10.6953
▁한쪽	-10.6957
▁받았어요	-10.6958
▁이익	-10.6966
▁민원	-10.6972
▁팔아	-10.6973
▁찾아왔	-10.6978
버리	-10.6979
▁만들었	-10.698
▁있었나	-10.6983
하시길	-10.6988
▁봐주세요	-10.6989
▁부스	-10.699
▁필요하시면	-10.6993
▁아닐까요	-10.6996
▁소문이	-10.7008
▁늦게까지	-10.7014
▁맞으면	-10.7018
▁힘들지	-10.7019
▁갈색	-10.7019
▁택시비	-10.7024
▁먼지	-10.7024
▁발주	-10.7032
▁보실	-10.7038
▁다쳤	-10.7038
거에요	-10.7038
주차	-10.7042
▁한복	-10.7044
▁지도에	-10.7063
▁지인	-10.7067
▁장비	-10.7069
▁고마워요	-10.7086
될까요	-10.7109
▁집까지	-10.712
▁대단하다	-10.7128
▁아기들	-10.7139
▁남아서	-10.7146
▁좋아하시는	-10.7167
▁목요일에	-10.7172
▁나오게	-10.7173
▁달려	-10.7201
▁타기	-10.7205
▁생겼어	-10.721
뜯	-10.7218
탁	-10.722
겠니	-10.7221
▁없을까	-10.7222
▁말해줘	-10.7224
겠으니	-10.7224
▁부탁해	-10.7228
쟁	-10.7229
▁규칙	-10.723
▁넉넉하	-10.723
▁묻어	-10.723
▁어땠어	-10.723
▁유튜브	-10.723
▁인수인계	-10.723
▁인테리어	-10.723
딜	-10.723
▁동영상	-10.723
▁부드럽	-10.723
암	-10.723
▁반갑습니다	-10.723
▁그러시다면	-10.723
▁통신사	-10.723
▁부드러	-10.723
▁풍경	-10.723
▁설탕	-10.723
▁올라와	-10.723
▁패드	-10.7231
▁소독	-10.7231
▁봉사	-10.7231
▁찌개	-10.7231
▁이력서	-10.7231
참	-10.7231
▁매니저님	-10.7231
▁미안한데	-10.7232
▁야외	-10.7232
▁일어났	-10.7233
▁물론이지	-10.7233
분이나	-10.7234
▁상대방	-10.7234
▁119	-10.7234
▁필기	-10.7234
▁김밥	-10.7235
▁진출	-10.7236
▁입장권	-10.7236
▁300	-10.7237
▁프로	-10.7242
▁서버	-10.7243
▁동시	-10.7243
▁고추	-10.7245
▁알림	-10.7249
죽	-10.7254
▁식단	-10.7254
▁유학	-10.7255
▁기간에	-10.7255
▁매트	-10.7257
애	-10.7259
▁놀라	-10.7269
갑니다	-10.727
▁필요하다고	-10.7273
되었나	-10.7278
▁거냐	-10.7279
▁지문	-10.7283
▁해봤는데	-10.7283
▁전산	-10.7285
11	-10.7289
원이에요	-10.7291
▁들러	-10.7298
▁아픈데	-10.7299
▁추천합니다	-10.7299
▁전화기	-10.7302
▁지시	-10.7303
▁도착했는데	-10.7308
▁어떡해요	-10.731
▁파리	-10.7313
▁일이야	-10.7317
▁갔어	-10.7319
▁부담스러	-10.7321
났	-10.7352
▁상상	-10.7353
▁그쪽에서	-10.7359
20	-10.7364
▁요청하신	-10.7371
▁가능하면	-10.7374
▁가봐야	-10.7407
▁음식들	-10.7418
▁그쪽에	-10.7418
▁사기	-10.7425
▁손님들	-10.7452
해봐야	-10.7456
었는지	-10.7457
쳤어	-10.7459
▁시작하기	-10.7464
테니	-10.7484
▁않나	-10.7503
▁와보	-10.7504
▁아파	-10.7521
▁아니었어	-10.7524
▁구분	-10.7525
▁경력이	-10.7532
놓겠습니다	-10.7532
▁정확	-10.7534
▁참아	-10.7556
▁흔들	-10.7565
졌어	-10.7572
텔	-10.7574
▁볶음	-10.7574
츠	-10.7575
▁견과류	-10.7575
▁기숙사	-10.7575
▁내비게이션	-10.7575
▁리조트	-10.7575
▁빨래	-10.7575
▁선크림	-10.7575
▁스피커	-10.7575
▁싱글	-10.7575
▁앨범	-10.7575
▁어려움	-10.7575
▁에센스	-10.7575
▁재무제표	-10.7575
▁칫솔	-10.7575
붓	-10.7575
뼈	-10.7575
턱	-10.7575
▁대사관	-10.7575
▁보라색	-10.7575
▁진단서	-10.7575
▁농구	-10.7575
▁아시아	-10.7575
▁가운데	-10.7575
▁가까우	-10.7576
▁행동	-10.7576
▁글씨	-10.7576
▁어두워	-10.7576
▁영광	-10.7576
▁가져갈	-10.7577
▁토론	-10.7577
▁쇼핑백	-10.7577
다시피	-10.7577
▁절반	-10.7577
▁않으시	-10.7579
▁형식	-10.7581
▁자녀	-10.7582
▁계셔서	-10.7583
▁연속	-10.7584
▁불법	-10.7584
▁단속	-10.7585
▁출석	-10.7587
▁보충	-10.759
▁치마	-10.759
▁소송	-10.7591
▁보냈는데	-10.7593
▁평소보다	-10.7595
▁대피	-10.7595
▁통관	-10.7598
▁종점	-10.76
▁국수	-10.7601
▁전액	-10.7604
▁다행이야	-10.7606
▁소금	-10.7608
▁정품	-10.7609
▁언제든	-10.7609
▁시안	-10.7614
▁않았으면	-10.7617
▁만들어진	-10.762
쉬	-10.7621
▁드셔야	-10.7624
생활	-10.7624
▁구매해야	-10.7628
허	-10.7629
▁용도	-10.7632
버스	-10.7651
▁가루	-10.7654
▁재미있게	-10.7657
▁인증	-10.7664
▁나무	-10.7677
▁해본	-10.7678
▁보내면	-10.7682
▁힘든데	-10.7684
▁차질	-10.7688
줬어	-10.7692
▁몰라요	-10.7693
▁제조	-10.7704
▁일식	-10.7709
▁만들고	-10.7714
▁여행사	-10.7732
▁매력	-10.7735
마리	-10.7739
▁처방해	-10.7776
▁도착해서	-10.7787
깐	-10.7795
▁일요일에	-10.7798
▁넘었	-10.7806
▁직업	-10.7827
▁물감	-10.783
▁들어오면	-10.7842
것	-10.7849
▁뒤에서	-10.7853
▁팀장	-10.7899
하시지	-10.7923
▁실례	-10.7924
▁안쪽에	-10.7927
깃	-10.7927
컨	-10.7932
▁리모컨	-10.7932
▁모닝콜	-10.7932
▁이루어지	-10.7932
▁초등학교	-10.7932
젠	-10.7932
▁공휴일	-10.7932
▁월드컵	-10.7932
▁쿠키	-10.7932
▁남편이	-10.7933
프라이	-10.7933
▁버섯	-10.7934
▁연령	-10.7934
▁연애	-10.7934
▁체결	-10.7934
▁교재	-10.7935
▁괜찮으시다면	-10.7937
▁복근	-10.7937
▁골프	-10.7937
▁회복	-10.7939
▁진작	-10.794
▁포크	-10.794
▁몰랐습니다	-10.7942
▁매달	-10.7944
▁정책	-10.7952
▁경찰서에	-10.7953
▁막혀서	-10.7954
▁제휴	-10.7957
▁내려가시면	-10.7959
▁비행기표	-10.7963
▁더블	-10.7964
▁선생님께서	-10.7964
▁눈치	-10.7964
▁나름	-10.7965
▁남기	-10.7966
▁들어가셔서	-10.7969
▁유아	-10.7976
▁글자	-10.7978
▁고소	-10.7982
▁않겠어	-10.7982
▁업체에서	-10.7984
▁후회	-10.7986
▁열려	-10.7991
터미널	-10.7993
칸	-10.7993
▁20,000	-10.8004
▁고정	-10.8005
▁사건	-10.8007
▁보군요	-10.8013
10	-10.8015
▁자정	-10.8016
▁유물	-10.8019
▁비치	-10.8028
▁우리나라에서	-10.8029
▁저렴하고	-10.8032
▁찍으면	-10.8046
▁앱으로	-10.8048
▁배운	-10.8049
받아서	-10.8058
▁시켜서	-10.8063
종일	-10.8066
▁달라지	-10.8073
▁학기에	-10.8074
▁지성	-10.8074
▁비싸지	-10.8076
▁공기	-10.8093
▁한국인	-10.8106
해줄래	-10.8107
▁홍보팀	-10.8107
▁제공하는	-10.8111
▁계신가	-10.8117
▁인사팀	-10.8122
▁비어	-10.8127
관리	-10.8139
▁입사한	-10.815
▁상황인데	-10.8155
했대	-10.8177
▁상황이라	-10.8194
▁편이라	-10.8199
▁이동할	-10.8207
▁배송받	-10.8212
▁출장비	-10.8216
▁어린	-10.822
▁가치	-10.8223
▁보내준	-10.8223
령	-10.8227
▁해물	-10.8238
▁그러니	-10.8239
▁뻔했어	-10.8249
▁유행하	-10.8257
▁큰일이네	-10.826
▁선생님께	-10.828
▁묵으	-10.8287
낭	-10.8298
롭	-10.8299
▁남아있나	-10.8303
▁그렇고	-10.8303
▁설문조사	-10.8303
▁숫자	-10.8303
▁슬리퍼	-10.8303
▁싫은데	-10.8303
▁찾겠어요	-10.8303
▁특정	-10.8303
댁	-10.8303
▁꽃다발	-10.8303
▁멈춰	-10.8303
▁시끄럽	-10.8303
▁장애인	-10.8303
▁캐나다	-10.8303
▁특징	-10.8303
▁해열제	-10.8303
숍	-10.8303
▁상반기	-10.8303
▁밀가루	-10.8303
▁게시판	-10.8303
▁여기저기	-10.8303
▁피곤한	-10.8303
▁뿌려	-10.8303
▁무거워	-10.8304
▁대응	-10.8304
▁잡혔	-10.8304
▁양고기	-10.8304
▁협의	-10.8305
▁계절	-10.8305
▁이외에	-10.8307
되었어요	-10.8307
▁감기약	-10.8307
▁변심	-10.8308
▁실패	-10.8309
▁긴급	-10.8309
▁의심	-10.8311
▁의료	-10.8311
▁진심	-10.8311
▁보람	-10.8312
▁단추	-10.8313
▁병동	-10.8313
▁알았으면	-10.8315
▁관세	-10.8317
▁재발	-10.8317
▁예정되어	-10.8317
▁교정	-10.8318
▁진동	-10.8318
느냐	-10.8322
▁부탁할게요	-10.8323
▁올릴	-10.8323
▁없으시면	-10.8324
▁어색	-10.8324
으셔서	-10.8327
▁보인다	-10.8327
▁보여드릴게요	-10.833
▁신기하다	-10.8341
▁키우	-10.8342
▁구조	-10.8342
따	-10.8342
▁배울	-10.8343
였던	-10.8344
▁비우	-10.8347
▁우대	-10.8349
▁쓰실	-10.835
▁하거든요	-10.835
▁편이에요	-10.8357
▁있겠어요	-10.8357
짜	-10.8361
▁비싸네요	-10.8362
▁재무팀	-10.8362
▁찍어주세요	-10.8363
독	-10.8365
▁고급	-10.8365
으셔야	-10.8372
▁중식	-10.8373
▁사람에게	-10.8378
미처	-10.838
년간	-10.8388
▁원화	-10.839
▁뭐든	-10.8404
▁끝내고	-10.841
치료	-10.8412
▁말이지	-10.842
▁채로	-10.8435
▁이제부터	-10.8443
▁에어	-10.8448
▁보는데	-10.8448
▁들어오지	-10.8458
▁80	-10.8475
해줄게	-10.8475
▁들여	-10.8479
▁타려고	-10.8484
▁평일에	-10.8497
▁법적	-10.8505
▁받으려고	-10.8521
800	-10.8533
▁보여줄	-10.8536
▁차장님	-10.8561
▁소문	-10.8586
▁쉬어	-10.8646
▁조명	-10.8655
▁휴게	-10.8656
버렸어	-10.8662
원이라고	-10.8676
하라는	-10.8679
▁나왔어	-10.8686
▁마스크	-10.8687
▁고맙지	-10.8687
▁김치찌개	-10.8687
▁뚜껑	-10.8687
▁맞출	-10.8687
▁부재중	-10.8687
▁선글라스	-10.8687
▁속눈썹	-10.8687
▁오프라인	-10.8687
▁올림픽	-10.8687
▁옮길	-10.8687
▁초록색	-10.8687
▁케이블	-10.8687
▁항생제	-10.8687
해드렸고	-10.8687
▁그저께	-10.8687
▁섭외	-10.8687
큽	-10.8687
▁쿠션	-10.8687
▁계좌이체	-10.8687
▁모바일	-10.8687
▁삭제	-10.8687
▁스마트폰	-10.8687
▁욕조	-10.8687
▁따뜻하	-10.8687
▁원산지	-10.8688
▁불렀	-10.8688
▁미룰	-10.8689
▁비쌀	-10.8689
▁돌아올	-10.8689
▁스킨	-10.8689
▁새것	-10.869
▁지폐	-10.8691
▁없애	-10.8691
▁소변	-10.8691
놓을게요	-10.8691
▁입술	-10.8692
▁의외	-10.8692
▁세척	-10.8693
▁벌레	-10.8693
▁외출	-10.8694
▁적립금	-10.8695
▁손목	-10.8696
▁급여	-10.8696
▁자막	-10.8696
▁남편	-10.8702
▁사원증	-10.8702
▁가능합니	-10.8702
▁단품	-10.8703
▁치약	-10.8703
▁순간	-10.8704
▁계정	-10.8705
▁임신	-10.8708
▁지불해야	-10.8708
▁교통비	-10.871
▁괜찮은가요	-10.871
▁놓아	-10.8711
▁감동	-10.8711
▁유통	-10.8713
▁만두	-10.8713
▁많았어	-10.8716
버려서	-10.8717
▁안내문	-10.8718
▁올린	-10.872
▁인천	-10.872
▁전달받	-10.8721
▁뭐예요	-10.8724
▁회신	-10.8726
▁고객사	-10.873
▁공용	-10.8731
▁파스	-10.8733
▁큰일이네요	-10.8736
▁아무거나	-10.8737
▁대금	-10.874
되었으니	-10.8745
▁않네	-10.8747
▁괜찮다고	-10.8752
▁식기	-10.8752
▁알약	-10.8755
누	-10.8755
뿐인데	-10.8759
▁쓰시면	-10.876
▁접시	-10.876
▁그러자	-10.8761
▁등기	-10.8767
▁배웠	-10.8768
▁고치	-10.8775
▁상황입니다	-10.8778
써	-10.8778
▁잡히	-10.8781
시켰	-10.8787
▁예정인	-10.8809
▁구비	-10.8812
▁편의점에서	-10.8812
▁포장해주세요	-10.8816
▁찾으면	-10.882
▁그것보다	-10.8866
▁시작하면	-10.8868
▁보신	-10.8878
▁아들	-10.8884
▁걸어가야	-10.8912
해줬	-10.8946
▁추천해주실	-10.8958
했다가	-10.8983
▁올까	-10.8988
▁입고되	-10.8988
▁기다려봐	-10.8993
▁주머니에	-10.8997
▁했다	-10.8999
▁150	-10.9027
킬	-10.9034
▁생겨	-10.9048
▁아들이	-10.9054
▁말하지	-10.9057
다며	-10.9073
▁다니면	-10.9074
▁면허	-10.9084
듯	-10.9084
튼	-10.9086
▁교통수단	-10.9087
▁남아있습니다	-10.9087
▁남아있지	-10.9087
▁스트레칭	-10.9087
▁워크숍	-10.9087
▁첫날	-10.9087
▁탕비실	-10.9087
▁특이한	-10.9087
▁피드백	-10.9087
▁할아버지	-10.9087
해봅시다	-10.9087
▁거짓말	-10.9087
▁닦아	-10.9087
▁승무원	-10.9087
▁여쭤볼	-10.9087
닝	-10.9087
윗	-10.9087
▁곤란하	-10.9087
▁렌즈	-10.9087
▁트윈	-10.9087
▁겹치	-10.9087
▁적당히	-10.9087
▁휴무	-10.9087
▁안타깝게도	-10.9087
▁편안한	-10.9087
▁컬러	-10.9088
▁수유실	-10.9088
▁멋지	-10.9088
▁불어	-10.9088
▁빈자리	-10.9088
▁욕실	-10.9089
▁확답	-10.9089
▁무섭	-10.9089
▁들어갑니다	-10.909
▁쓰레기통	-10.909
▁민감	-10.9091
▁가능하신가요	-10.9092
▁경비실에	-10.9093
▁달콤	-10.9094
▁사귀	-10.9095
▁힘내	-10.9095
▁확실하게	-10.9095
▁걱정되네요	-10.9096
▁회색	-10.9097
▁말씀드릴	-10.91
▁소파	-10.9102
▁노력하겠습니다	-10.9105
▁방침	-10.9111
▁교수님께서	-10.9114
▁관련하여	-10.9117
▁좋아하시	-10.9118
▁현대	-10.9121
▁봐봐	-10.9122
▁전국	-10.9123
▁대형	-10.9124
둬야	-10.9127
▁입점	-10.9128
▁소요되	-10.913
▁없어졌	-10.9132
▁강남역	-10.9133
▁신선한	-10.9135
▁검색해보	-10.9135
▁서적	-10.9145
▁배차	-10.9155
▁스스	-10.9157
▁사료	-10.9161
▁있었네요	-10.9161
▁그러네요	-10.9169
▁친구들과	-10.9179
▁구경하고	-10.9187
▁채우	-10.9187
골	-10.9187
▁입실	-10.9189
▁추가됩니다	-10.9198
▁맞으시	-10.9203
까진	-10.9216
▁가위	-10.9234
▁드리려고	-10.9263
▁상관없으니	-10.93
▁카페인	-10.9356
▁과장	-10.9362
▁느껴져	-10.9379
켰	-10.9396
▁나오기	-10.9398
▁모자라	-10.9404
됐는지	-10.9405
▁입어볼	-10.9421
▁90	-10.9453
▁듯해	-10.9458
▁할인율	-10.9476
끔	-10.9492
▁250	-10.9496
흘	-10.9498
▁뿐이	-10.9499
▁안타깝	-10.95
혹	-10.9501
▁이상해	-10.9501
렌	-10.9504
춘	-10.9504
▁관광객들	-10.9504
▁눌렀	-10.9504
▁마카롱	-10.9504
▁몸무게	-10.9504
▁묶음	-10.9504
▁방탄소년단	-10.9504
▁브레이크	-10.9504
▁빠듯	-10.9504
▁쌀국수	-10.9504
▁여드름	-10.9504
▁우체국	-10.9504
▁위약금	-10.9504
▁입국심사	-10.9504
▁탄산음료	-10.9504
▁향신료	-10.9504
릿	-10.9504
▁아쉬운	-10.9504
▁장학금	-10.9504
▁출장경비	-10.9504
콘	-10.9504
쌉	-10.9504
▁무서운	-10.9504
▁장난	-10.9504
▁증명	-10.9504
▁고속도로	-10.9504
▁느리	-10.9505
▁휴게소에	-10.9505
▁얼마든지	-10.9505
▁허락	-10.9506
▁우측	-10.9506
▁사이드	-10.9506
▁투표	-10.9509
▁예술	-10.9509
▁철저	-10.951
▁주의사항	-10.951
▁도와줘	-10.951
▁느려	-10.9511
▁내려오	-10.9515
▁위생	-10.9516
▁동료	-10.9516
▁않으셨나요	-10.9517
▁팩스	-10.9517
▁만료	-10.9521
▁완료되었습니다	-10.9523
▁소량	-10.9523
▁안내판	-10.9524
▁공급	-10.9525
▁불가능해요	-10.9526
▁작동하지	-10.9527
▁하필	-10.9527
▁불가능한가	-10.9528
▁부른	-10.9529
▁피곤해서	-10.953
▁확인해볼게요	-10.9534
▁생수	-10.9537
▁경우엔	-10.9542
▁않습니까	-10.9543
▁추운	-10.9547
▁과정에서	-10.9555
▁드네요	-10.9556
버렸어요	-10.9558
▁좋네	-10.9566
▁상품권	-10.9572
▁신청했는데	-10.9584
▁친구에게	-10.9588
▁주류	-10.9589
▁문제집	-10.959
▁자연	-10.9591
▁사업자	-10.9594
▁공개	-10.9602
▁쓰러	-10.9605
▁편이라서	-10.9607
▁신청하려고	-10.9617
▁부치	-10.9618
▁금요일까지	-10.9624
접	-10.9625
새	-10.9628
돈	-10.9629
빵	-10.963
▁선물하려고	-10.9648
▁궁금	-10.965
음식	-10.9657
원짜리	-10.9674
세트	-10.9674
▁기장	-10.9676
▁걱정되	-10.9682
▁만들기	-10.9707
다더니	-10.9725
▁입어봐	-10.9734
▁놓으	-10.9736
▁좋으니	-10.9741
▁소요될	-10.9747
▁시도해	-10.9749
▁추천해줄	-10.9749
▁좋으시	-10.9751
▁요일	-10.977
▁할인받	-10.9845
줬는데	-10.9847
▁운전면허	-10.9934
▁비즈니스	-10.9935
들끼리	-10.9936
▁착각했	-10.9937
솔	-10.9939
▁낮춰	-10.9939
▁머릿결	-10.9939
▁멀어서	-10.9939
▁멤버십	-10.9939
▁뽑으	-10.9939
▁스타벅스	-10.9939
▁어울린다	-10.9939
샷	-10.9939
틈	-10.9939
존	-11.0079
끈	-11.0083
짐	-11.0085
험	-11.0328
킨	-11.0384
꼴	-11.0393
램	-11.0393
틴	-11.0393
냈	-11.0545
찬	-11.0556
컵	-11.056
맨	-11.056
닌	-11.0863
뤄	-11.0867
멈	-11.0869
귄	-11.0869
맹	-11.0869
춥	-11.0869
꽃	-11.106
몬	-11.1369
삭	-11.1369
춰	-11.1369
닉	-11.1369
딴	-11.1369
셜	-11.1369
캡	-11.1369
몰	-11.1583
북	-11.1585
놀	-11.1589
욱	-11.187
칙	-11.189
섭	-11.1893
뉴	-11.1895
흰	-11.1896
몽	-11.1896
묘	-11.1896
쩍	-11.1896
틱	-11.1896
귀	-11.213
쁜	-11.2436
럭	-11.2451
죄	-11.2451
빗	-11.2451
쌍	-11.2451
톡	-11.2451
훈	-11.2451
싶	-11.2729
뜻	-11.2729
꿀	-11.3036
윈	-11.3039
콩	-11.304
뱅	-11.304
싹	-11.304
컷	-11.304
뚝	-11.304
눈	-11.335
남	-11.3353
폭	-11.3355
잖	-11.3661
첨	-11.3662
롯	-11.3664
괴	-11.3665
갛	-11.3665
멸	-11.3665
퉁	-11.3665
폼	-11.3665
껍	-11.3665
둡	-11.3665
혁	-11.3665
폐	-11.4015
딱	-11.4026
끝	-11.4029
텐	-11.4302
닥	-11.4328
밍	-11.433
렛	-11.4331
윤	-11.4331
잭	-11.4331
흑	-11.4331
썰	-11.4331
왁	-11.4331
틀	-11.4701
칼	-11.4735
럼	-11.502
겹	-11.5042
쁠	-11.5042
랍	-11.5042
슨	-11.5042
둥	-11.5043
룰	-11.5043
왼	-11.5046
칭	-11.5046
띠	-11.5046
룬	-11.5046
뱀	-11.5046
샌	-11.5046
췄	-11.5046
칩	-11.5046
쿨	-11.5046
깨	-11.5501
굴	-11.5503
캔	-11.5812
딘	-11.5815
긋	-11.5815
쪄	-11.5815
쭈	-11.5815
툴	-11.5815
덜	-11.6339
팬	-11.6344
뇨	-11.6641
읍	-11.6648
즙	-11.6648
켜	-11.7219
찍	-11.7239
팔	-11.7248
쌀	-11.7252
픈	-11.7543
퀴	-11.7554
뿌	-11.7555
렀	-11.7555
댄	-11.7557
앤	-11.7557
뚱	-11.7557
볕	-11.7557
팟	-11.7557
샐	-11.7557
넣	-11.8233
깊	-11.8247
쓸	-11.8249
또	-11.8249
헤	-11.8251
랫	-11.8549
뜩	-11.8556
곽	-11.8557
룡	-11.8557
앓	-11.8557
잼	-11.8557
칫	-11.8557
덴	-11.8557
엠	-11.8557
컴	-11.8557
킥	-11.8557
푼	-11.8557
셰	-11.8557
쑥	-11.8557
먼	-11.9355
힘	-11.9359
잠	-11.936
총	-11.936
멋	-11.9665
렵	-11.9665
찮	-11.9668
룩	-11.9668
넛	-11.9668
댔	-11.9668
잇	-11.9668
탭	-11.9668
겐	-11.9668
겟	-11.9668
롤	-11.9668
롱	-11.9668
맣	-11.9668
젓	-11.9668
텍	-11.9668
튬	-11.9668
핏	-11.9668
앗	-11.9668
헌	-11.9668
힙	-11.9668
못	-12.0587
펜	-12.0605
빈	-12.0609
삼	-12.0609
큼	-12.0884
룹	-12.0898
냥	-12.0898
줍	-12.0916
릅	-12.0916
융	-12.0917
뱃	-12.0918
깍	-12.0918
웅	-12.0918
곰	-12.0918
귤	-12.0918
덟	-12.0918
덧	-12.0918
렬	-12.0918
릉	-12.0918
뿍	-12.0918
삿	-12.0918
쩜	-12.0918
콕	-12.0918
엘	-12.0918
응	-12.2029
닭	-12.2036
푸	-12.2036
튀	-12.2036
잘	-12.2039
톱	-12.2343
깬	-12.2347
꼽	-12.2347
뀔	-12.2347
둣	-12.2347
듀	-12.2347
뵌	-12.2347
삯	-12.2347
잎	-12.2347
쪘	-12.2347
펄	-12.2347
냅	-12.2347
줌	-12.2347
찔	-12.2347
헉	-12.2347
싸	-12.3698
묵	-12.3701
졸	-12.3701
숨	-12.3703
떼	-12.3703
좀	-12.3706
넘	-12.3709
륙	-12.3977
즌	-12.4008
즐	-12.4012
즘	-12.4012
랩	-12.4014
꿉	-12.4014
멘	-12.4014
뭇	-12.4014
쪼	-12.4014
갯	-12.4014
귈	-12.4014
뤘	-12.4014
맬	-12.4014
몹	-12.4014
슐	-12.4014
엿	-12.4014
찐	-12.4014
훅	-12.4014
톨	-12.4014
춤	-12.5701
젤	-12.5703
큰	-12.5706
낀	-12.6014
돗	-12.6014
잣	-12.6014
꾹	-12.6014
넷	-12.6014
뜬	-12.6014
랗	-12.6014
툼	-12.6014
휜	-12.6014
밭	-12.6014
욘	-12.6014
껌	-12.6014
밸	-12.6014
뜹	-12.6014
깔	-12.8201
밑	-12.8202
갖	-12.8205
쭉	-12.8205
꼭	-12.8207
얌	-12.8513
낄	-12.8514
줏	-12.8514
끙	-12.8514
냇	-12.8514
뎌	-12.8514
똘	-12.8514
륜	-12.8514
삔	-12.8514
쏙	-12.8514
쐬	-12.8514
쭙	-12.8514
챗	-12.8514
쿼	-12.8514
탬	-12.8514
틸	-12.8514
팽	-12.8514
벅	-12.8514
웁	-12.8514
픔	-12.8514
픕	-12.8514
셋	-13.1537
넌	-13.1539
빼	-13.1539
꾼	-13.1844
엇	-13.1844
캣	-13.1847
혓	-13.1847
짬	-13.1847
탱	-13.1847
껑	-13.1847
넨	-13.1847
넬	-13.1847
땡	-13.1847
똥	-13.1847
랭	-13.1847
렉	-13.1847
렐	-13.1847
밧	-13.1847
뿜	-13.1847
썬	-13.1847
짱	-13.1847
큘	-13.1847
텅	-13.1847
툭	-13.1847
훤	-13.1847
됬	-13.1847
벙	-13.1847
빕	-13.1847
딥	-13.1847
킵	-13.1847
닫	-13.6538
녹	-13.654
땐	-13.6541
앱	-13.6542
곧	-13.6543
꿔	-13.6844
킷	-13.6845
릭	-13.6846
낑	-13.6847
벡	-13.6847
곯	-13.6847
꾄	-13.6847
낌	-13.6847
넋	-13.6847
넙	-13.6847
덱	-13.6847
뛴	-13.6847
밋	-13.6847
빽	-13.6847
삑	-13.6847
싯	-13.6847
쌩	-13.6847
쐴	-13.6847
앴	-13.6847
얗	-13.6847
엮	-13.6847
옇	-13.6847
쥔	-13.6847
쿡	-13.6847
쿵	-13.6847
텀	-13.6847
펑	-13.6847
펭	-13.6847
퓨	-13.6847
휀	-13.6847
뻣	-13.6847
괏	-13.6847
낍	-13.6847
흙	-14.6357
휑	-14.6358
헴	-14.6359
헨	-14.636
헝	-14.6361
펫	-14.6362
튈	-14.6363
텼	-14.6364
첸	-14.6365
잿	-14.6366
쐐	-14.6367
쏴	-14.6368
쏜	-14.6369
쌰	-14.637
슥	-14.6371
샜	-14.6372
뼘	-14.6373
뼉	-14.6374
뻥	-14.6375
빤	-14.6376
뵀	-14.6377
룽	-14.6378
랴	-14.6379
띔	-14.638
띌	-14.6381
뚤	-14.6382
땋	-14.6383
듈	-14.6384
뎄	-14.6385
뉜	-14.6386
끽	-14.6387
꾀	-14.6388
꽁	-14.6389
귓	-14.639
갇	-14.6391
흩	-14.6392
홋	-14.6393
튄	-14.6394
켠	-14.6395
챠	-14.6396
짰	-14.6397
쟀	-14.6398
왓	-14.6399
얏	-14.64
슛	-14.6401
슘	-14.6402
숏	-14.6403
셈	-14.6404
섣	-14.6405
쁨	-14.6406
뺌	-14.6407
빚	-14.6408
랖	-14.6409
똠	-14.641
뗐	-14.6411
댈	-14.6412
늠	-14.6413
늑	-14.6414
녜	-14.6415
꿍	-14.6416
굣	-14.6417
갸	-14.6418
갠	-14.6419
퀸	-14.642
캉	-14.6421
쭐	-14.6422
짭	-14.6423
짙	-14.6424
썽	-14.6425
숲	-14.6426
뽁	-14.6427
뻗	-14.6428
뺏	-14.6429
뮬	-14.643
뭣	-14.6431
멧	-14.6432
멉	-14.6433
뜸	-14.6434
닛	-14.6435
늙	-14.6436
놈	-14.6437
깼	-14.6438
괌	-14.6439
갗	-14.644
푯	-14.6441
챔	-14.6442
쫀	-14.6443
짚	-14.6444
싣	-14.6445
숄	-14.6446
솟	-14.6447
섹	-14.6448
뽀	-14.6449
믈	-14.645
딧	-14.6451
덤	-14.6452
꿩	-14.6453
깻	-14.6454
굿	-14.6455
갚	-14.6456
혐	-14.6457
펼	-14.6458
퍽	-14.6459
텁	-14.646
킴	-14.6461
켤	-14.6462
촛	-14.6463
촘	-14.6464
잴	-14.6465
얹	-14.6466
쉰	-14.6467
뾰	-14.6468
뺑	-14.6469
봬	-14.647
뱉	-14.6471
뭡	-14.6472
맴	-14.6473
뛸	-14.6474
꿰	-14.6475
궐	-14.6476
훑	-14.6477
펩	-14.6478
팥	-14.6479
찻	-14.648
옳	-14.6481
엌	-14.6482
앰	-14.6483
쑤	-14.6484
섰	-14.6485
벳	-14.6486
벚	-14.6487
묽	-14.6488
멎	-14.6489
럿	-14.649
뜰	-14.6491
땄	-14.6492
낵	-14.6493
낡	-14.6494
갤	-14.6495
팻	-14.6496
팍	-14.6497
쾃	-14.6498
컹	-14.6499
쫓	-14.65
쌌	-14.6501
삽	-14.6502
멕	-14.6503
맸	-14.6504
닮	-14.6505
펍	-14.6506
쟤	-14.6507
옅	-14.6508
엎	-14.6509
맑	-14.651
륨	-14.6511
눕	-14.6512
뇌	-14.6513
훼	-14.6514
펙	-14.6515
톰	-14.6516
캘	-14.6517
짤	-14.6518
씁	-14.6519
쏠	-14.652
쏘	-14.6521
뻤	-14.6522
몫	-14.6523
맷	-14.6524
딨	-14.6525
눅	-14.6526
휠	-14.6527
펌	-14.6528
텨	-14.6529
퀵	-14.653
뺀	-14.6531
헛	-14.6532
쁩	-14.6533
뺐	-14.6534
빴	-14.6535
뚫	-14.6536
댓	-14.6537
펠	-14.6538
쥐	-14.6539
웰	-14.654
씌	-14.6541
갓	-14.6542
춧	-14.6543
숱	-14.6544
댑	-14.6545
낚	-14.6546
퀄	-14.6547
캄	-14.6548
엊	-14.6549
숯	-14.655
붐	-14.6551
돋	-14.6552
닳	-14.6553
뉘	-14.6554
쉽	-14.6555
굶	-14.6555
탓	-14.6556
븐	-14.6557
렷	-14.6558
즉	-14.6558
뵙	-14.6558
껐	-14.6559
깥	-14.656
꽉	-14.656
땀	-14.656
훔	-14.6561
핵	-14.6562
칵	-14.6563
잉	-14.6564
솥	-14.6565
겪	-14.6566
펀	-14.6567
툰	-14.6568
쉐	-14.6569
떴	-14.657
낳	-14.6571
깅	-14.6572
걔	-14.6573
핫	-14.6574
팠	-14.6575
쫄	-14.6576
쨌	-14.6577
쌈	-14.6578
낱	-14.6579
쩡	-14.658
뺄	-14.6581
붕	-14.6582
뵈	-14.6583
썩	-14.6584
섀	-14.6585
둠	-14.6586
꺾	-14.6587
헐	-14.6588
멜	-14.6589
돕	-14.659
덥	-14.6591
곁	-14.6592
걀	-14.6593
잤	-14.6594
삐	-14.6595
붉	-14.6596
봇	-14.6597
넥	-14.6598
낯	-14.6599
깁	-14.66
쿄	-14.6601
엽	-14.6602
삶	-14.6603
뽕	-14.6604
봄	-14.6605
밟	-14.6606
맺	-14.6607
둑	-14.6608
덩	-14.6609
컸	-14.661
믹	-14.6611
늬	-14.6612
팸	-14.6613
갱	-14.6614
흉	-14.6615
횟	-14.6616
탠	-14.6617
탐	-14.6618
찝	-14.6619
뵐	-14.662
긁	-14.6621
횡	-14.6622
씹	-14.6623
쏟	-14.6624
빅	-14.6625
꿨	-14.6626
젯	-14.6627
잦	-14.6628
앨	-14.6629
셉	-14.663
륭	-14.6631
슴	-14.6632
뭉	-14.6633
팁	-14.6634
얀	-14.6635
숫	-14.6636
덮	-14.6637
짠	-14.6638
꼈	-14.6639
햇	-14.664
캠	-14.6641
쉴	-14.6642
굵	-14.6643
얇	-14.6644
숟	-14.6645
딪	-14.6646
끓	-14.6647
폴	-14.6648
찼	-14.6649
뷔	-14.665
띄	-14.6651
옥	-14.6652
뚜	-14.6653
첩	-14.6654
왠	-14.6655
괄	-14.6656
겸	-14.6657
훌	-14.6658
씻	-14.6659
닷	-14.666
흠	-14.6661
닿	-14.6662
콧	-14.6663
뢰	-14.6664
녔	-14.6665
엉	-14.6666
솜	-14.6667
랙	-14.6668
멤	-14.6669
릎	-14.667
찢	-14.6671
볍	-14.6672
젖	-14.6673
빔	-14.6674
멍	-14.6675
맘	-14.6676
땠	-14.6677
푹	-14.6678
듭	-14.6679
닦	-14.668
뀐	-14.6681
꿈	-14.6682
흐	-14.6683
섞	-14.6684
굽	-14.6685
썹	-14.6686
웬	-14.6687
쌓	-14.6688
쩐	-14.6689
숭	-14.669
샴	-14.6691
젊	-14.6692
겉	-14.6693
좁	-14.6694
뮤	-14.6695
튜	-14.6696
끗	-14.6697
얻	-14.6698
벼	-14.6699
압	-14.67
앙	-14.6701
묶	-14.6702
큐	-14.6703
엑	-14.6704
쇠	-14.6705
뻐	-14.6706
쓴	-14.6707
끌	-14.6708
헷	-14.6709
셀	-14.671
꽂	-14.6711
쎄	-14.6712
넓	-14.6713
썼	-14.6714
헬	-14.6715
픽	-14.6716
웹	-14.6717
벗	-14.6718
묻	-14.6719
굳	-14.672
옛	-14.6721
뒷	-14.6722
밴	-14.6723
끊	-14.6724
릇	-14.6725
펴	-14.6726
밌	-14.6727
걷	-14.6728
눌	-14.6729
웨	-14.673
논	-14.6731
깎	-14.6732
샘	-14.6733
잊	-14.6734
므	-14.6735
흡	-14.6736
샤	-14.6737
맙	-14.6738
빡	-14.6739
쇄	-14.674
팝	-14.6741
넉	-14.6742
옵	-14.6743
밝	-14.6744
템	-14.6745
뀌	-14.6746
캐	-14.6747
촉	-14.6748
첫	-14.6749
딸	-14.675
눠	-14.6751
깝	-14.6752
믿	-14.6753
껴	-14.6754
쩌	-14.6755
뛰	-14.6756
낙	-14.6757
햄	-14.6758
짧	-14.6759
낫	-14.676
꼼	-14.6761
델	-14.6762
젝	-14.6763
닙	-14.6764
봅	-14.6765
끄	-14.6766
뭘	-14.6767
볶	-14.6768
냄	-14.6769
깜	-14.677
옮	-14.6771
웃	-14.6772
싱	-14.6773
냉	-14.6774
쭤	-14.6775
뽑	-14.6776
싼	-14.6777
읽	-14.6778
굉	-14.6779
찰	-14.678
잃	-14.6781
홈	-14.6782
뜨	-14.6783
낮	-14.6784
똑	-14.6785
슷	-14.6786
닐	-14.6787
벽	-14.6788
싫	-14.6789
랬	-14.679
콜	-14.6791
꽤	-14.6792
촬	-14.6793
멀	-14.6794
쩔	-14.6795
듣	-14.6796
핸	-14.6797
뭔	-14.6798
붙	-14.6799
챙	-14.68
얘	-14.6801
센	-14.6802
몸	-14.6803
규	-14.6804
높	-14.6805
샀	-14.6806
쁘	-14.6807
획	-14.6808
맡	-14.6809
떠	-14.681
앉	-14.6811
럽	-14.6812
녕	-14.6813
홍	-14.6814
옆	-14.6815
밖	-14.6816
녁	-14.6817
걱	-14.6818
떨	-14.6819
뒤	-14.682
특	-14.6821
늦	-14.6822
빠	-14.6823
뭐	-14.6824
빨	-14.6825
왜	-14.6826
쓰	-14.6827
최	-14.6828
착	-14.6829
앞	-14.683
몇	-14.6831
객	-14.6832
씀	-14.6833
찾	-14.6834
떤	-14.6835
괜	-14.6836
됩	-14.6837
떻	-14.6838
셨	-14.6839
맞	-14.684
렇	-14.6841
많	-14.6842
않	-14.6843
좋	-14.6844
입	-14.6845
같	-14.6846
얕	-14.6847
짇	-14.6847
쩝	-14.6847
톈	-14.6847
궈	-14.6847
깠	-14.6847
긍	-14.6847
겋	-14.6847
겔	-14.6847
곗	-14.6847
곘	-14.6847
궂	-14.6847
궤	-14.6847
깰	-14.6847
꺅	-14.6847
껀	-14.6847
껄	-14.6847
껫	-14.6847
뀜	-14.6847
넜	-14.6847
눔	-14.6847
눴	-14.6847
뉩	-14.6847
늄	-14.6847
늉	-14.6847
됨	-14.6847
듐	-14.6847
딕	-14.6847
딛	-14.6847
딤	-14.6847
땜	-14.6847
떫	-14.6847
뗀	-14.6847
뗄	-14.6847
띕	-14.6847
띤	-14.6847
띵	-14.6847
롬	-14.6847
룟	-14.6847
룻	-14.6847
륵	-14.6847
멓	-14.6847
멩	-14.6847
뭄	-14.6847
벴	-14.6847
볐	-14.6847
붇	-14.6847
뻑	-14.6847
샛	-14.6847
쇳	-14.6847
쐰	-14.6847
씰	-14.6847
앵	-14.6847
엣	-14.6847
엥	-14.6847
웍	-14.6847
웓	-14.6847
웜	-14.6847
윌	-14.6847
윳	-14.6847
윽	-14.6847
잰	-14.6847
쟨	-14.6847
쥬	-14.6847
쥴	-14.6847
짖	-14.6847
짢	-14.6847
쨍	-14.6847
쬐	-14.6847
쯔	-14.6847
찡	-14.6847
찧	-14.6847
챌	-14.6847
쵸	-14.6847
췌	-14.6847
츰	-14.6847
컥	-14.6847
켄	-14.6847
켈	-14.6847
쿤	-14.6847
퀼	-14.6847
탤	-14.6847
툿	-14.6847
튿	-14.6847
팎	-14.6847
팜	-14.6847
팡	-14.6847
퐁	-14.6847
풋	-14.6847
퓸	-14.6847
홉	-14.6847
휩	-14.6847
꽝	-14.6847
녘	-14.6847
뺨	-14.6847
읊	-14.6847
팰	-14.6847
폈	-14.6847
깄	-14.6847
듦	-14.6847
렙	-14.6847
뽐	-14.6847
셌	-14.6847
짊	-14.6847
챈	-14.6847
퀘	-14.6847
핼	-14.6847
있	-14.6847
캬	-14.6847
